unsigned char tflite_model_tflite[] = {
  0x1c, 0x00, 0x00, 0x00, 0x54, 0x46, 0x4c, 0x33, 0x14, 0x00, 0x20, 0x00,
  0x1c, 0x00, 0x18, 0x00, 0x14, 0x00, 0x10, 0x00, 0x0c, 0x00, 0x00, 0x00,
  0x08, 0x00, 0x04, 0x00, 0x14, 0x00, 0x00, 0x00, 0x1c, 0x00, 0x00, 0x00,
  0xa0, 0x00, 0x00, 0x00, 0xf8, 0x00, 0x00, 0x00, 0xe0, 0x3d, 0x00, 0x00,
  0xf0, 0x3d, 0x00, 0x00, 0x7c, 0x4d, 0x00, 0x00, 0x03, 0x00, 0x00, 0x00,
  0x01, 0x00, 0x00, 0x00, 0x10, 0x00, 0x00, 0x00, 0x00, 0x00, 0x0a, 0x00,
  0x10, 0x00, 0x0c, 0x00, 0x08, 0x00, 0x04, 0x00, 0x0a, 0x00, 0x00, 0x00,
  0x0c, 0x00, 0x00, 0x00, 0x1c, 0x00, 0x00, 0x00, 0x3c, 0x00, 0x00, 0x00,
  0x0f, 0x00, 0x00, 0x00, 0x73, 0x65, 0x72, 0x76, 0x69, 0x6e, 0x67, 0x5f,
  0x64, 0x65, 0x66, 0x61, 0x75, 0x6c, 0x74, 0x00, 0x01, 0x00, 0x00, 0x00,
  0x04, 0x00, 0x00, 0x00, 0x88, 0xff, 0xff, 0xff, 0x1d, 0x00, 0x00, 0x00,
  0x04, 0x00, 0x00, 0x00, 0x08, 0x00, 0x00, 0x00, 0x64, 0x65, 0x6e, 0x73,
  0x65, 0x5f, 0x33, 0x37, 0x00, 0x00, 0x00, 0x00, 0x01, 0x00, 0x00, 0x00,
  0x04, 0x00, 0x00, 0x00, 0xfa, 0xc1, 0xff, 0xff, 0x04, 0x00, 0x00, 0x00,
  0x15, 0x00, 0x00, 0x00, 0x6e, 0x6f, 0x72, 0x6d, 0x61, 0x6c, 0x69, 0x7a,
  0x61, 0x74, 0x69, 0x6f, 0x6e, 0x5f, 0x34, 0x5f, 0x69, 0x6e, 0x70, 0x75,
  0x74, 0x00, 0x00, 0x00, 0x02, 0x00, 0x00, 0x00, 0x34, 0x00, 0x00, 0x00,
  0x04, 0x00, 0x00, 0x00, 0xdc, 0xff, 0xff, 0xff, 0x20, 0x00, 0x00, 0x00,
  0x04, 0x00, 0x00, 0x00, 0x13, 0x00, 0x00, 0x00, 0x43, 0x4f, 0x4e, 0x56,
  0x45, 0x52, 0x53, 0x49, 0x4f, 0x4e, 0x5f, 0x4d, 0x45, 0x54, 0x41, 0x44,
  0x41, 0x54, 0x41, 0x00, 0x08, 0x00, 0x0c, 0x00, 0x08, 0x00, 0x04, 0x00,
  0x08, 0x00, 0x00, 0x00, 0x1f, 0x00, 0x00, 0x00, 0x04, 0x00, 0x00, 0x00,
  0x13, 0x00, 0x00, 0x00, 0x6d, 0x69, 0x6e, 0x5f, 0x72, 0x75, 0x6e, 0x74,
  0x69, 0x6d, 0x65, 0x5f, 0x76, 0x65, 0x72, 0x73, 0x69, 0x6f, 0x6e, 0x00,
  0x21, 0x00, 0x00, 0x00, 0xe4, 0x3c, 0x00, 0x00, 0xdc, 0x3c, 0x00, 0x00,
  0xc0, 0x3c, 0x00, 0x00, 0xa4, 0x3c, 0x00, 0x00, 0x7c, 0x3c, 0x00, 0x00,
  0x3c, 0x3c, 0x00, 0x00, 0xcc, 0x3b, 0x00, 0x00, 0x5c, 0x3b, 0x00, 0x00,
  0x8c, 0x3a, 0x00, 0x00, 0x1c, 0x3a, 0x00, 0x00, 0xdc, 0x39, 0x00, 0x00,
  0xb8, 0x39, 0x00, 0x00, 0x60, 0x39, 0x00, 0x00, 0x30, 0x38, 0x00, 0x00,
  0xa0, 0x33, 0x00, 0x00, 0x90, 0x2a, 0x00, 0x00, 0x80, 0x18, 0x00, 0x00,
  0x70, 0x06, 0x00, 0x00, 0xe0, 0x01, 0x00, 0x00, 0xe0, 0x00, 0x00, 0x00,
  0xd8, 0x00, 0x00, 0x00, 0xd0, 0x00, 0x00, 0x00, 0xc8, 0x00, 0x00, 0x00,
  0xc0, 0x00, 0x00, 0x00, 0xb8, 0x00, 0x00, 0x00, 0xb0, 0x00, 0x00, 0x00,
  0xa8, 0x00, 0x00, 0x00, 0xa0, 0x00, 0x00, 0x00, 0x98, 0x00, 0x00, 0x00,
  0x90, 0x00, 0x00, 0x00, 0x88, 0x00, 0x00, 0x00, 0x68, 0x00, 0x00, 0x00,
  0x04, 0x00, 0x00, 0x00, 0x02, 0xc3, 0xff, 0xff, 0x04, 0x00, 0x00, 0x00,
  0x54, 0x00, 0x00, 0x00, 0x0c, 0x00, 0x00, 0x00, 0x08, 0x00, 0x0e, 0x00,
  0x08, 0x00, 0x04, 0x00, 0x08, 0x00, 0x00, 0x00, 0x10, 0x00, 0x00, 0x00,
  0x24, 0x00, 0x00, 0x00, 0x00, 0x00, 0x06, 0x00, 0x08, 0x00, 0x04, 0x00,
  0x06, 0x00, 0x00, 0x00, 0x04, 0x00, 0x00, 0x00, 0x00, 0x00, 0x00, 0x00,
  0x00, 0x00, 0x0a, 0x00, 0x10, 0x00, 0x0c, 0x00, 0x08, 0x00, 0x04, 0x00,
  0x0a, 0x00, 0x00, 0x00, 0x02, 0x00, 0x00, 0x00, 0x02, 0x00, 0x00, 0x00,
  0x04, 0x00, 0x00, 0x00, 0x06, 0x00, 0x00, 0x00, 0x32, 0x2e, 0x31, 0x33,
  0x2e, 0x30, 0x00, 0x00, 0x62, 0xc3, 0xff, 0xff, 0x04, 0x00, 0x00, 0x00,
  0x10, 0x00, 0x00, 0x00, 0x31, 0x2e, 0x36, 0x2e, 0x30, 0x00, 0x00, 0x00,
  0x00, 0x00, 0x00, 0x00, 0x00, 0x00, 0x00, 0x00, 0xb4, 0xb4, 0xff, 0xff,
  0xb8, 0xb4, 0xff, 0xff, 0xbc, 0xb4, 0xff, 0xff, 0xc0, 0xb4, 0xff, 0xff,
  0xc4, 0xb4, 0xff, 0xff, 0xc8, 0xb4, 0xff, 0xff, 0xcc, 0xb4, 0xff, 0xff,
  0xd0, 0xb4, 0xff, 0xff, 0xd4, 0xb4, 0xff, 0xff, 0xd8, 0xb4, 0xff, 0xff,
  0xdc, 0xb4, 0xff, 0xff, 0xaa, 0xc3, 0xff, 0xff, 0x04, 0x00, 0x00, 0x00,
  0xf0, 0x00, 0x00, 0x00, 0x09, 0xb2, 0x3f, 0xc0, 0x81, 0x01, 0xca, 0x3f,
  0x5f, 0x4a, 0x64, 0x3d, 0xae, 0x58, 0x0f, 0xbf, 0xc2, 0x68, 0xe5, 0xbf,
  0x35, 0x54, 0x85, 0xc0, 0x54, 0x31, 0x0d, 0xc0, 0x3f, 0x90, 0xde, 0x3e,
  0x9d, 0x50, 0x35, 0xc0, 0x3c, 0x19, 0x39, 0xc0, 0x54, 0x35, 0x4f, 0xc0,
  0xab, 0xef, 0x61, 0xbf, 0x40, 0xbc, 0xa8, 0xbf, 0xcc, 0x70, 0xa4, 0xbf,
  0x6e, 0x7a, 0x62, 0x3f, 0x08, 0xd0, 0xca, 0xbd, 0xa8, 0x3a, 0xc4, 0x3f,
  0x37, 0x5f, 0x74, 0xc0, 0xa4, 0xca, 0x71, 0xbf, 0x5b, 0x03, 0xe4, 0x3e,
  0xd8, 0x45, 0xb4, 0xbf, 0xc7, 0xe9, 0x10, 0xbf, 0x31, 0x30, 0xa6, 0x3f,
  0x62, 0x45, 0x2e, 0x3f, 0x1b, 0xe6, 0x00, 0x3e, 0x9f, 0x8b, 0x99, 0x3e,
  0xae, 0x2e, 0x0f, 0xc0, 0x68, 0x48, 0x56, 0xbe, 0xe2, 0x8d, 0xf2, 0xbd,
  0x7a, 0xfd, 0x56, 0x3f, 0xeb, 0x84, 0x0b, 0xbe, 0x6b, 0x4b, 0x58, 0x3e,
  0xc5, 0xf9, 0xb5, 0xbc, 0x68, 0x04, 0x93, 0xbd, 0xc5, 0xe9, 0x21, 0xbe,
  0x54, 0x27, 0x9d, 0x3d, 0x59, 0xe1, 0xd7, 0x3e, 0xf5, 0x85, 0x13, 0xc0,
  0xa3, 0x70, 0x54, 0x3f, 0x2d, 0x8c, 0x41, 0x3f, 0x6f, 0x90, 0xd9, 0xbf,
  0x8e, 0x31, 0x57, 0x3f, 0xde, 0xee, 0x14, 0xc0, 0x7a, 0xb4, 0x00, 0x3f,
  0xba, 0x5c, 0x63, 0x3f, 0xa6, 0x7d, 0x6b, 0xc0, 0xd1, 0x28, 0x3c, 0x3f,
  0xb9, 0x78, 0xfa, 0xbe, 0xc6, 0xe3, 0x94, 0xbb, 0x8c, 0x2c, 0xd7, 0x3e,
  0x82, 0xa3, 0xf1, 0xbf, 0xbf, 0xb3, 0x56, 0x3e, 0xf4, 0xbb, 0xb6, 0x3d,
  0xa9, 0xd8, 0x74, 0x3e, 0x3f, 0xb9, 0x09, 0xbf, 0x3f, 0xe5, 0x1f, 0x3d,
  0xb2, 0xf7, 0xa6, 0x3e, 0xe5, 0x92, 0xb9, 0x3e, 0x05, 0x6a, 0x9a, 0x3e,
  0x42, 0x5e, 0x77, 0xbf, 0xa6, 0xc4, 0xff, 0xff, 0x04, 0x00, 0x00, 0x00,
  0x80, 0x04, 0x00, 0x00, 0x6c, 0x98, 0x40, 0x3f, 0x9c, 0xc0, 0x10, 0x3f,
  0x30, 0xa6, 0x70, 0x3e, 0x33, 0x2b, 0x2d, 0xbf, 0x18, 0x8d, 0x8d, 0xbd,
  0xe4, 0x4d, 0xaf, 0xbe, 0xd4, 0x3e, 0xe8, 0x3e, 0x1d, 0xdd, 0xac, 0x3e,
  0x48, 0xf9, 0x09, 0xbe, 0xfb, 0x82, 0x4b, 0x3f, 0xd3, 0x2c, 0x21, 0xbe,
  0xa1, 0xe5, 0x59, 0x3f, 0xe8, 0x1a, 0x03, 0x3e, 0x39, 0xde, 0x61, 0x3e,
  0xfc, 0x2c, 0xcd, 0x3e, 0x3c, 0x0b, 0xec, 0x3e, 0x04, 0xa9, 0xfd, 0xbe,
  0x47, 0x0f, 0x04, 0xbf, 0xea, 0x44, 0x50, 0xbf, 0xaa, 0x57, 0x0a, 0x3f,
  0xa3, 0x65, 0xa8, 0xbf, 0x58, 0x89, 0x50, 0x3e, 0x7a, 0x79, 0x5f, 0x3d,
  0x3a, 0xac, 0x45, 0xbe, 0xed, 0xb2, 0xe3, 0x3d, 0x97, 0xbc, 0x34, 0x3f,
  0x74, 0xad, 0xf7, 0x3e, 0x6c, 0x30, 0xe6, 0x3e, 0xfc, 0x24, 0xbb, 0xbc,
  0x75, 0x73, 0x41, 0x3e, 0x54, 0x1d, 0xd4, 0x3e, 0xa3, 0x5a, 0x14, 0x3f,
  0xae, 0x6a, 0xab, 0xbe, 0x67, 0xdb, 0xcc, 0xbe, 0x12, 0xa4, 0x2b, 0x3e,
  0x89, 0xdf, 0x7d, 0x3f, 0x7c, 0x4c, 0x89, 0xbe, 0x75, 0xbc, 0x65, 0xbe,
  0x9d, 0xb1, 0x65, 0xbf, 0x77, 0x0f, 0xc9, 0x3e, 0x63, 0x6b, 0xcf, 0x3e,
  0x43, 0x38, 0x49, 0x3c, 0x5b, 0xf6, 0xe6, 0x3e, 0xcd, 0xc3, 0x8d, 0x3e,
  0x0e, 0x03, 0x72, 0x3f, 0xeb, 0xe0, 0x35, 0xbd, 0x6d, 0x04, 0x29, 0x3d,
  0x65, 0x7c, 0x1f, 0x3e, 0xd3, 0x2b, 0x11, 0xbf, 0xad, 0xc2, 0x36, 0xbe,
  0x67, 0x8d, 0xd9, 0xbe, 0xf7, 0x8d, 0xcd, 0xbe, 0xf8, 0x5d, 0xb9, 0x3e,
  0x1f, 0x71, 0x42, 0xbf, 0x20, 0x1f, 0x88, 0x3d, 0xf7, 0x8f, 0x90, 0xbe,
  0x66, 0xde, 0x91, 0x3e, 0x2c, 0xa9, 0xd1, 0x3c, 0x77, 0x0f, 0x27, 0xbf,
  0x77, 0x8a, 0x8e, 0xbe, 0x83, 0x1b, 0xae, 0x3e, 0xc7, 0xad, 0x21, 0x3f,
  0xec, 0x82, 0x76, 0x3e, 0x62, 0x11, 0x45, 0xbe, 0x4d, 0xa3, 0x88, 0x3f,
  0x06, 0x26, 0x75, 0x3f, 0xec, 0xf1, 0x41, 0xbf, 0xe7, 0x30, 0xab, 0xbe,
  0x67, 0xd3, 0x2f, 0x3f, 0x07, 0x38, 0x55, 0xbe, 0xc8, 0x1a, 0x6c, 0xbe,
  0xbf, 0xba, 0xe1, 0x3d, 0xbd, 0x8d, 0x8b, 0x3d, 0xf5, 0x58, 0x42, 0xbe,
  0x74, 0x0f, 0x2b, 0xbd, 0x64, 0xa3, 0x84, 0xbd, 0x15, 0xfb, 0x2d, 0x3e,
  0x76, 0x4b, 0x81, 0xbe, 0x18, 0xfd, 0x9c, 0xbe, 0x4e, 0x0f, 0xa6, 0xbe,
  0x75, 0x2c, 0xce, 0xbc, 0xfe, 0x57, 0xb5, 0xbd, 0x05, 0xe5, 0x25, 0xbe,
  0xdf, 0xc0, 0xc1, 0x3e, 0xe0, 0x5e, 0xe1, 0xbd, 0x77, 0xc5, 0x38, 0xbe,
  0xc4, 0x2a, 0x8a, 0xbe, 0x08, 0x42, 0xa5, 0xbe, 0x9b, 0x4a, 0x14, 0x3e,
  0xbf, 0x54, 0x5a, 0x3e, 0xc4, 0x00, 0xc4, 0xbe, 0xa4, 0x66, 0xff, 0xbd,
  0x7e, 0x11, 0x5a, 0xbd, 0xe2, 0x32, 0x7e, 0xbe, 0x5f, 0xe6, 0xfe, 0x3e,
  0x70, 0xd7, 0xbc, 0x3e, 0x6b, 0x55, 0xfb, 0xbe, 0x08, 0x45, 0xa6, 0x3e,
  0x4e, 0x19, 0xcf, 0xbd, 0x97, 0x3c, 0xc4, 0xbc, 0x5a, 0x91, 0x03, 0x3f,
  0x0d, 0x80, 0x3b, 0x3f, 0x8a, 0xe2, 0x75, 0xbe, 0x2c, 0x9d, 0x98, 0xbe,
  0x8f, 0x57, 0xab, 0xbf, 0x91, 0xc5, 0xaa, 0x3e, 0xbc, 0x19, 0xd6, 0x3e,
  0x3e, 0x7f, 0x96, 0x3e, 0x44, 0xc6, 0x95, 0xbe, 0xf8, 0x56, 0x7d, 0xbe,
  0x76, 0x8c, 0xbb, 0x3d, 0xd7, 0xc5, 0xdd, 0x3c, 0xda, 0x7e, 0x82, 0x3e,
  0x79, 0x68, 0x25, 0x3f, 0x1b, 0x8b, 0x08, 0x3f, 0x00, 0x5f, 0x9b, 0xbd,
  0x5e, 0x6e, 0x9d, 0x3e, 0x5f, 0xb0, 0x49, 0x3e, 0x50, 0x26, 0xa0, 0xbf,
  0x3d, 0xea, 0x88, 0xbe, 0x73, 0xca, 0x00, 0xbf, 0x08, 0x8a, 0x6c, 0xbf,
  0xe2, 0xdd, 0x3f, 0x3e, 0x68, 0x5e, 0x18, 0x3e, 0xee, 0x8e, 0x56, 0x3e,
  0xb5, 0x5d, 0x34, 0x3f, 0x92, 0x6b, 0x58, 0xbf, 0x66, 0x2d, 0x36, 0x3f,
  0x90, 0x1a, 0x5e, 0xbe, 0xa4, 0x24, 0x1c, 0xbe, 0xa8, 0x56, 0x33, 0x3f,
  0xc1, 0x0b, 0x11, 0xbd, 0x11, 0x6d, 0x3e, 0xbe, 0x97, 0xa1, 0x28, 0xbd,
  0x1d, 0x17, 0x3d, 0xbf, 0xf2, 0xd1, 0xa0, 0x3e, 0xf6, 0x7d, 0x75, 0x3f,
  0xb9, 0x8a, 0x6e, 0x3f, 0x5c, 0xc9, 0x53, 0x3f, 0x95, 0x36, 0x8b, 0x3e,
  0xb1, 0xe8, 0x42, 0xbf, 0x43, 0xae, 0x19, 0xbe, 0x77, 0xa6, 0x83, 0x3f,
  0xd3, 0x9b, 0xca, 0x3e, 0xde, 0x6f, 0xc0, 0x3e, 0x74, 0x22, 0xfd, 0xbd,
  0xb4, 0x70, 0xa5, 0x3e, 0x59, 0x13, 0xd0, 0xbd, 0x42, 0xdc, 0x05, 0xbe,
  0x63, 0xc1, 0x6f, 0x3e, 0x80, 0x9f, 0x77, 0x3e, 0x28, 0x31, 0xab, 0xbe,
  0xff, 0x97, 0x03, 0xbf, 0x9f, 0x7d, 0x99, 0x3e, 0x8a, 0xca, 0x33, 0xbe,
  0x33, 0xe1, 0x3a, 0x3f, 0x90, 0x7d, 0xb5, 0xbd, 0x72, 0xae, 0xfe, 0x3d,
  0xbc, 0x0a, 0xee, 0x3d, 0x57, 0x98, 0x65, 0x3f, 0xef, 0x5e, 0x74, 0xb9,
  0x00, 0xf2, 0xf9, 0x3d, 0xff, 0x7e, 0x09, 0x3e, 0xe3, 0x86, 0x57, 0x3e,
  0x07, 0xd2, 0x12, 0xbf, 0x88, 0xc8, 0x15, 0xbe, 0x77, 0xba, 0xaf, 0x3e,
  0x70, 0x7a, 0x9b, 0x3e, 0x14, 0xc1, 0x07, 0x3e, 0xe4, 0x4f, 0xa6, 0xbe,
  0x51, 0x07, 0x32, 0x3d, 0x62, 0xed, 0x0d, 0xbe, 0x19, 0x67, 0x4d, 0xbe,
  0x12, 0xed, 0xb1, 0xbe, 0x72, 0xe7, 0xc1, 0xbe, 0x44, 0x71, 0x0a, 0x3e,
  0x8f, 0xe8, 0x76, 0x3d, 0x18, 0x8f, 0x26, 0x3d, 0x7d, 0xcf, 0x72, 0xbe,
  0x5c, 0x6a, 0x7e, 0x3e, 0x74, 0xf4, 0x7b, 0x3e, 0x4c, 0xa5, 0x94, 0x3e,
  0x5f, 0x1a, 0xc9, 0xbe, 0xd8, 0xe7, 0x69, 0xbe, 0x51, 0x8d, 0xc6, 0xbe,
  0x31, 0x7b, 0x07, 0x3e, 0xf4, 0xed, 0x5d, 0x3e, 0x65, 0x6f, 0xc0, 0xbe,
  0x20, 0xd9, 0x70, 0xbd, 0x0c, 0x8a, 0x46, 0x3e, 0xac, 0x22, 0x6d, 0x3e,
  0x40, 0xd6, 0x9c, 0xbd, 0xb4, 0x69, 0xfb, 0x3e, 0x25, 0x41, 0x83, 0xbe,
  0x83, 0x31, 0x9b, 0x3e, 0xd5, 0x83, 0xaf, 0x3e, 0x5c, 0xbb, 0x1a, 0x3f,
  0x2d, 0x99, 0x6f, 0x3e, 0x64, 0x38, 0x13, 0x3f, 0xd1, 0x29, 0x2f, 0x3e,
  0x5e, 0xc3, 0xdd, 0xbf, 0xd6, 0x54, 0x1f, 0xbe, 0x64, 0x21, 0xd0, 0x3e,
  0x36, 0xc7, 0xcf, 0xbd, 0x9c, 0x2d, 0x48, 0xbe, 0x01, 0x10, 0x7f, 0x3e,
  0xbb, 0x7a, 0x6e, 0x3e, 0x14, 0x26, 0xa0, 0x3e, 0x72, 0xe4, 0xb3, 0xbd,
  0x92, 0x16, 0xe1, 0xbe, 0xa3, 0xae, 0x1f, 0x3f, 0xa5, 0x54, 0x88, 0xbe,
  0x2b, 0x9c, 0xc7, 0xbe, 0x2a, 0x0c, 0x77, 0x3e, 0x25, 0x93, 0xc7, 0x3f,
  0x20, 0xc5, 0xa6, 0xbe, 0xb1, 0x9c, 0xc9, 0xbe, 0x6c, 0x41, 0x99, 0xbe,
  0x4e, 0xfc, 0x3e, 0x3f, 0xa2, 0xf3, 0x25, 0xbe, 0x07, 0x1c, 0xf8, 0xbe,
  0x3e, 0x5b, 0xbd, 0xbe, 0xf2, 0x2a, 0x85, 0xbe, 0x69, 0x6d, 0xc1, 0xbe,
  0x9b, 0xb7, 0xbd, 0x3e, 0xf4, 0x03, 0x91, 0xbe, 0x3d, 0x24, 0xb1, 0xbe,
  0xc9, 0xc6, 0xb9, 0xbe, 0xa1, 0xd2, 0x65, 0xbd, 0xaa, 0xd1, 0x92, 0x3e,
  0xe1, 0x66, 0x0b, 0x3e, 0x78, 0xda, 0xa8, 0x3e, 0x7d, 0x00, 0x9d, 0xbe,
  0x3b, 0xf4, 0xb4, 0x3e, 0x62, 0xe9, 0x26, 0xbf, 0x01, 0x7f, 0x81, 0x3f,
  0xf6, 0x9d, 0xf3, 0x3b, 0x64, 0x3b, 0x36, 0x3e, 0x70, 0x1d, 0xdc, 0x3e,
  0x20, 0x14, 0xb2, 0xbd, 0xde, 0x52, 0x19, 0xbf, 0xdf, 0xa3, 0x85, 0xbe,
  0xfd, 0x96, 0x1f, 0x3f, 0x43, 0xa9, 0x1c, 0x3f, 0x07, 0x6b, 0x10, 0x3f,
  0xf7, 0xd1, 0xc9, 0x3d, 0xb4, 0x5f, 0x9b, 0x3d, 0xb7, 0xb8, 0x53, 0x3f,
  0x62, 0x4c, 0x20, 0xbf, 0x60, 0x78, 0xf9, 0xbe, 0x7d, 0x26, 0x34, 0x3f,
  0x0a, 0xd4, 0x74, 0x3e, 0xf8, 0xe7, 0xf5, 0x3d, 0x20, 0x66, 0x03, 0x3f,
  0xfa, 0xa7, 0x5d, 0x3e, 0x83, 0x14, 0x31, 0xbf, 0x70, 0x12, 0x31, 0xbe,
  0xe6, 0x9f, 0x7c, 0xbe, 0xda, 0xce, 0x5a, 0x3e, 0x27, 0x19, 0x09, 0x3e,
  0x81, 0xe7, 0xb1, 0x3d, 0x80, 0x68, 0x1b, 0x3d, 0x0f, 0xa9, 0x2d, 0xbf,
  0xcb, 0x02, 0x1a, 0x3d, 0x7f, 0x5e, 0x23, 0x3f, 0xdc, 0xee, 0x27, 0x3e,
  0x81, 0xb5, 0xa2, 0xbe, 0x7b, 0x63, 0xa3, 0x3e, 0x02, 0xa4, 0xf5, 0x3e,
  0x85, 0xde, 0x0f, 0x3e, 0x84, 0x5f, 0xfe, 0xbd, 0x66, 0x5e, 0x3d, 0xbe,
  0x1e, 0x5e, 0xcc, 0xbf, 0xb5, 0x76, 0x78, 0x3f, 0x31, 0xbc, 0xeb, 0x3c,
  0x38, 0xb0, 0xb4, 0xbc, 0xc0, 0x0c, 0x92, 0x3d, 0x63, 0x27, 0x2c, 0x3f,
  0x30, 0x9b, 0xa4, 0xbd, 0xda, 0xde, 0xa1, 0x3e, 0x64, 0x6e, 0x32, 0xbf,
  0x55, 0xea, 0x97, 0x3e, 0xcd, 0x53, 0x00, 0x3f, 0x80, 0x8c, 0x00, 0xbf,
  0x33, 0x1b, 0xc5, 0x3e, 0x57, 0xa2, 0x81, 0x3e, 0x7b, 0x8b, 0x01, 0xbf,
  0x42, 0x1a, 0x8a, 0x3d, 0x32, 0xc9, 0xff, 0xff, 0x04, 0x00, 0x00, 0x00,
  0x00, 0x12, 0x00, 0x00, 0xc7, 0x3d, 0x87, 0xbe, 0xa7, 0x1e, 0x93, 0x3d,
  0x1c, 0xea, 0x85, 0x3e, 0xe3, 0x1e, 0x66, 0xbf, 0x26, 0xf7, 0x86, 0x3e,
  0x57, 0x00, 0x81, 0xbe, 0x99, 0xfe, 0x4a, 0xbc, 0x6a, 0x2a, 0xda, 0xbe,
  0x7e, 0x25, 0xee, 0xbe, 0xd9, 0xd9, 0x37, 0x3e, 0x0f, 0xa8, 0x1c, 0xbf,
  0xf2, 0x7e, 0x93, 0xbe, 0x14, 0x7a, 0x2b, 0x3f, 0x54, 0x80, 0x66, 0xbe,
  0x7f, 0xe6, 0x10, 0x3f, 0x8d, 0xf9, 0x99, 0xbe, 0x67, 0xcb, 0xac, 0xbe,
  0x67, 0xa8, 0xc3, 0x3e, 0x80, 0x9c, 0xa9, 0x3e, 0xf1, 0x63, 0xa8, 0x3e,
  0x3f, 0xc2, 0x92, 0xbe, 0x98, 0x7e, 0x20, 0xbf, 0xaa, 0x48, 0xd4, 0xbe,
  0x4b, 0x84, 0xcb, 0xbe, 0xd5, 0x0b, 0x0e, 0xbe, 0x52, 0xf7, 0x0e, 0xbe,
  0x26, 0x25, 0x35, 0xbf, 0x5a, 0xc8, 0xf5, 0x3d, 0xc2, 0x3d, 0x45, 0x3f,
  0x0c, 0x67, 0x7c, 0xbf, 0x25, 0x4b, 0x3d, 0xbe, 0xbd, 0xa9, 0x26, 0xbe,
  0x78, 0xbf, 0x25, 0x3f, 0xf8, 0x6b, 0x8f, 0xbe, 0x72, 0x53, 0xb7, 0xbe,
  0x38, 0x0e, 0x40, 0xbf, 0x75, 0xfa, 0xd1, 0xbe, 0x61, 0x25, 0x88, 0x3d,
  0x1e, 0x97, 0xde, 0xbc, 0x1d, 0x88, 0xf3, 0x3e, 0x9e, 0xf5, 0x50, 0x3e,
  0x80, 0x2d, 0x43, 0xbf, 0x27, 0x78, 0x8d, 0xbd, 0xab, 0xca, 0xe7, 0x3e,
  0x5a, 0x94, 0x20, 0x3e, 0x78, 0x9f, 0xc0, 0xbf, 0x7b, 0x8c, 0x15, 0x3f,
  0xbb, 0x71, 0xa7, 0xbe, 0xff, 0xe0, 0x92, 0x3d, 0x66, 0xd3, 0xdd, 0xbb,
  0xcb, 0xb8, 0x5b, 0x3d, 0x61, 0xd1, 0x8e, 0x3e, 0x0f, 0x78, 0xab, 0x3d,
  0xa3, 0x01, 0x31, 0xbe, 0xe6, 0x01, 0x02, 0x3e, 0x23, 0x0f, 0x46, 0x3f,
  0x90, 0x75, 0x52, 0x3e, 0x08, 0xfb, 0x2c, 0xbf, 0x9f, 0x33, 0x10, 0xbf,
  0x8b, 0xc6, 0xca, 0x3e, 0xee, 0x23, 0x96, 0x3e, 0xf6, 0xe9, 0xba, 0xbe,
  0xec, 0x41, 0xd1, 0x3d, 0x0c, 0x0f, 0xdb, 0xbd, 0x0e, 0xa8, 0xf7, 0xbd,
  0x33, 0x96, 0x86, 0xbc, 0x74, 0x37, 0xde, 0xbf, 0x61, 0xf1, 0xe0, 0xbe,
  0x6f, 0xff, 0x11, 0x3e, 0x46, 0x0c, 0xe1, 0xbe, 0x54, 0xe1, 0x97, 0x3f,
  0x5a, 0x68, 0x22, 0x3f, 0x58, 0xa5, 0xa8, 0x3e, 0xf8, 0x35, 0xbd, 0x3e,
  0x88, 0xab, 0xe3, 0x3c, 0xc9, 0x21, 0x9f, 0x3e, 0xdd, 0x1d, 0x05, 0xbe,
  0xcb, 0x60, 0x02, 0x3f, 0xcf, 0x47, 0x52, 0x3e, 0x71, 0xe3, 0x61, 0xbf,
  0xc3, 0xb9, 0x0c, 0xbf, 0x6f, 0x5f, 0x29, 0x3f, 0xe1, 0x9c, 0x12, 0xbe,
  0xe6, 0x94, 0xd1, 0xbe, 0x26, 0x93, 0xbb, 0xbe, 0x97, 0xb7, 0x66, 0xbe,
  0x05, 0x55, 0x16, 0xbe, 0x86, 0xf8, 0x3c, 0x3f, 0x4e, 0x6c, 0x09, 0xbe,
  0x02, 0x18, 0xd5, 0x3e, 0x3a, 0x19, 0xda, 0xbe, 0xfa, 0xc6, 0x3b, 0xbd,
  0x4b, 0x0c, 0x99, 0xbc, 0xb5, 0x5f, 0x95, 0x3e, 0x3b, 0x2b, 0xf7, 0x3e,
  0x82, 0x86, 0x88, 0x3e, 0xd8, 0x66, 0x4d, 0x3f, 0x1f, 0xb2, 0x1a, 0x3f,
  0xa2, 0x84, 0x94, 0xbd, 0x47, 0x13, 0x26, 0xbf, 0x03, 0x89, 0x06, 0xbf,
  0x21, 0x3c, 0xfe, 0x3e, 0x59, 0x4c, 0x23, 0x3f, 0x02, 0x19, 0x3a, 0xbf,
  0xc3, 0xb5, 0x06, 0xbf, 0x11, 0x31, 0xab, 0x3d, 0x43, 0xdc, 0x37, 0xbe,
  0xb8, 0xb0, 0x1f, 0x3f, 0x7a, 0x10, 0x97, 0xbe, 0x14, 0x81, 0x0b, 0x3f,
  0x82, 0xbc, 0xc8, 0x3e, 0xb3, 0xbb, 0x61, 0x3f, 0x36, 0x71, 0x9d, 0x3e,
  0xc0, 0xfc, 0xa6, 0x3e, 0x87, 0x9b, 0x84, 0x3e, 0xdd, 0xcf, 0x81, 0xbf,
  0x72, 0xef, 0xd1, 0x3e, 0x78, 0x9a, 0xae, 0xbe, 0x96, 0x96, 0x51, 0x3e,
  0xa2, 0x0a, 0xb6, 0xbe, 0x2c, 0x33, 0xf8, 0x3c, 0x78, 0xf2, 0xf1, 0x3e,
  0x55, 0x7b, 0x3d, 0x3e, 0x28, 0x4c, 0x96, 0x3e, 0x22, 0x6b, 0x82, 0xbf,
  0x46, 0x0a, 0x1f, 0xbf, 0xcd, 0xaa, 0x5e, 0xbf, 0x0e, 0x16, 0x84, 0x3e,
  0x4f, 0x36, 0x44, 0x3f, 0x70, 0x65, 0x71, 0x3d, 0x7c, 0xdc, 0x01, 0x3f,
  0xff, 0x61, 0x96, 0x3d, 0x89, 0xf3, 0x91, 0x3e, 0xbc, 0x08, 0xcf, 0xbe,
  0xcf, 0xd1, 0xef, 0x3e, 0x86, 0x4d, 0x3b, 0x3e, 0xa0, 0x9c, 0x0f, 0x3f,
  0x1a, 0x41, 0xf2, 0x3d, 0xd5, 0xc6, 0x50, 0x3e, 0x7a, 0x83, 0xc9, 0xbe,
  0xa2, 0xde, 0xff, 0xbc, 0x9d, 0x3f, 0xa0, 0xbe, 0xcc, 0xd5, 0xc1, 0xbf,
  0xb1, 0x44, 0xb1, 0x3e, 0xd7, 0xd3, 0xc2, 0x3e, 0xe2, 0xd1, 0x01, 0x3f,
  0x60, 0xd8, 0x68, 0x3e, 0x47, 0x3f, 0x77, 0xbd, 0x73, 0x1b, 0x33, 0x3e,
  0x90, 0x7b, 0xa4, 0x3e, 0x2c, 0xf3, 0xe9, 0x3e, 0x56, 0x67, 0xbc, 0x3d,
  0x1e, 0x31, 0x69, 0xbf, 0x93, 0x37, 0x2a, 0xbd, 0xc0, 0x3d, 0x78, 0x3e,
  0x9e, 0xdc, 0xd8, 0x3e, 0x3e, 0x91, 0x23, 0x3e, 0xa0, 0x69, 0x3d, 0x3f,
  0x15, 0x62, 0x0d, 0xbe, 0xcb, 0xf5, 0x92, 0x3f, 0xb0, 0xdc, 0xbb, 0xbd,
  0xd7, 0xdc, 0xfe, 0x3e, 0xc8, 0x32, 0x80, 0xbe, 0xdd, 0x7b, 0x1b, 0x3e,
  0x05, 0x5d, 0xec, 0x3d, 0x01, 0x75, 0x86, 0x3e, 0xcb, 0x8e, 0xda, 0x3e,
  0xff, 0x73, 0x63, 0xbc, 0x33, 0xaf, 0xc4, 0xbe, 0xa1, 0xcb, 0x29, 0x3e,
  0x22, 0x46, 0xab, 0x3b, 0x44, 0x73, 0x8a, 0x3e, 0x49, 0x3d, 0x1f, 0x3e,
  0xab, 0x48, 0x8a, 0x3e, 0xa7, 0x1a, 0x49, 0xbf, 0xd0, 0xa1, 0x65, 0x3f,
  0xb5, 0x3b, 0xbd, 0xbe, 0xe4, 0x4a, 0x2e, 0x3f, 0xe3, 0x34, 0x50, 0x3e,
  0xeb, 0xcf, 0x32, 0xbf, 0x37, 0xc4, 0xc7, 0x3e, 0x89, 0x1f, 0xb5, 0x3e,
  0x8a, 0x79, 0xd1, 0x3e, 0x47, 0xb5, 0x34, 0x3e, 0x4a, 0x6d, 0xc5, 0xbe,
  0x58, 0xd1, 0x3a, 0x3e, 0x2d, 0x05, 0x5b, 0xbe, 0x04, 0xdf, 0x74, 0x3d,
  0xd8, 0xb4, 0x94, 0x3e, 0xda, 0xac, 0xa1, 0x3d, 0x4e, 0x71, 0x21, 0xbe,
  0x63, 0xe4, 0x17, 0x3f, 0x5b, 0x25, 0xb1, 0x3e, 0xfc, 0x99, 0x48, 0x3e,
  0xdb, 0x14, 0xcc, 0x3e, 0xeb, 0x2e, 0x40, 0x3d, 0x8a, 0xfd, 0x40, 0x3e,
  0x68, 0x48, 0x86, 0x3e, 0xfd, 0x71, 0xc4, 0x3e, 0xbc, 0xfd, 0xd1, 0xbd,
  0x2a, 0xeb, 0xb4, 0xbf, 0xaa, 0x10, 0x9e, 0x3d, 0xa9, 0x1e, 0xcb, 0xbe,
  0xbb, 0x00, 0x00, 0x3f, 0x8e, 0xb1, 0xba, 0xbe, 0x04, 0x55, 0x3e, 0x3f,
  0x41, 0x72, 0x6f, 0xbe, 0x9a, 0x3e, 0x0b, 0x3f, 0x67, 0x17, 0x14, 0xbf,
  0x50, 0x7c, 0x35, 0x3f, 0xf8, 0x63, 0x0b, 0xbe, 0x90, 0x7c, 0x74, 0x3d,
  0x5b, 0x75, 0x6a, 0x3c, 0xbe, 0x4a, 0x51, 0xbd, 0x38, 0x98, 0xb0, 0xbe,
  0xc9, 0x92, 0x1a, 0xbc, 0x77, 0xe5, 0x3a, 0x3e, 0xe0, 0x1b, 0xa8, 0x3e,
  0x1a, 0x28, 0x78, 0x3e, 0x09, 0x37, 0xab, 0xbe, 0x2f, 0xf8, 0xc3, 0x3e,
  0x81, 0x2f, 0x13, 0xbe, 0x49, 0xf9, 0xbd, 0xbf, 0x08, 0x00, 0x9a, 0xbe,
  0x74, 0xbd, 0x80, 0xbd, 0xa3, 0x5d, 0xc7, 0x3e, 0xb0, 0x1e, 0x0b, 0x3e,
  0xf8, 0x3c, 0x87, 0xbf, 0x85, 0x95, 0x0d, 0x3e, 0x71, 0xe1, 0x39, 0x3b,
  0xd4, 0x25, 0x9c, 0x3d, 0x05, 0x00, 0xc9, 0x3e, 0x05, 0x82, 0x2f, 0x3e,
  0xdc, 0x67, 0xb5, 0xbd, 0x67, 0xbc, 0x60, 0x3d, 0x99, 0x2c, 0x15, 0x3f,
  0x43, 0xe0, 0xc5, 0x3e, 0x01, 0x9f, 0x8b, 0xbe, 0xc6, 0xa9, 0x9f, 0xbd,
  0xf3, 0xa6, 0x17, 0x3d, 0x83, 0xc4, 0xa5, 0xbf, 0x95, 0xa1, 0xab, 0xbe,
  0xfd, 0x38, 0x0b, 0xbe, 0xc4, 0x16, 0xcc, 0xbe, 0xba, 0xd6, 0x63, 0xbf,
  0xa4, 0x60, 0x8c, 0xbe, 0x0d, 0x92, 0x25, 0x3e, 0xf6, 0x4d, 0x60, 0x3e,
  0xe5, 0x95, 0x4a, 0x3e, 0xe5, 0xaa, 0xef, 0xbd, 0x0c, 0xd7, 0x71, 0x3e,
  0x3e, 0xa1, 0x57, 0xbd, 0x95, 0x0d, 0x55, 0xbe, 0x4a, 0x00, 0x57, 0x3e,
  0xb9, 0x53, 0x82, 0xbf, 0x23, 0x74, 0x1e, 0x3f, 0x8c, 0x8c, 0x00, 0xbd,
  0xf2, 0xd1, 0xb8, 0xbe, 0x53, 0xfc, 0xc6, 0x3f, 0xbb, 0x41, 0xec, 0x3e,
  0xb6, 0xbf, 0x83, 0x3e, 0x6b, 0x19, 0x2c, 0xbe, 0xb6, 0xca, 0x88, 0x3f,
  0x5d, 0xad, 0xef, 0xbf, 0xb6, 0xde, 0x38, 0xbf, 0x55, 0xe0, 0x95, 0x3e,
  0x49, 0xaa, 0x01, 0x3f, 0x63, 0xab, 0x8e, 0xbe, 0x9d, 0x5d, 0x24, 0xbf,
  0xf7, 0xfa, 0xe3, 0xbf, 0x9a, 0x13, 0x60, 0x3f, 0xf7, 0xc6, 0xfe, 0x3e,
  0xa1, 0x00, 0xbe, 0xbd, 0xfd, 0xcc, 0xd5, 0xbc, 0x34, 0x12, 0x83, 0x3e,
  0x3e, 0x72, 0x52, 0xbc, 0x85, 0x8e, 0x25, 0x3f, 0x5a, 0x69, 0x0e, 0xbd,
  0xbe, 0x87, 0x5c, 0xbf, 0x62, 0x7c, 0x82, 0xbf, 0xdd, 0x81, 0x95, 0xbe,
  0x54, 0xb8, 0x1e, 0xbf, 0xff, 0x6c, 0xa2, 0xbe, 0x3e, 0x0e, 0x85, 0xbe,
  0xc7, 0xcd, 0xb7, 0xbe, 0xc4, 0x1d, 0x48, 0xbf, 0x4f, 0xbd, 0xc5, 0xbe,
  0x55, 0xde, 0x0b, 0x3c, 0x47, 0x01, 0x2a, 0x3f, 0x45, 0x36, 0x81, 0x3e,
  0xc2, 0xed, 0x8e, 0x3e, 0xb1, 0x9e, 0x06, 0xbf, 0xc1, 0x0b, 0x5e, 0xbe,
  0xba, 0x71, 0x1c, 0x3f, 0x99, 0xa4, 0x94, 0x3e, 0x45, 0x08, 0x22, 0xbf,
  0xec, 0x8f, 0xa3, 0xbf, 0xc5, 0xd8, 0xfd, 0x3d, 0x90, 0xd0, 0x90, 0xbe,
  0x39, 0x96, 0x8b, 0x3e, 0xb8, 0xe1, 0x9d, 0xbd, 0x97, 0x61, 0xd0, 0x3e,
  0x5d, 0x55, 0x1a, 0x3f, 0x53, 0x48, 0x6d, 0x3e, 0xbf, 0x28, 0xa9, 0x3e,
  0x8c, 0xf2, 0xbb, 0x3e, 0x35, 0x15, 0x7c, 0x3e, 0x64, 0xf8, 0x92, 0xbe,
  0x51, 0xe2, 0x97, 0x3e, 0x60, 0x8c, 0xae, 0xbe, 0x54, 0x4e, 0x13, 0x3e,
  0x21, 0xcf, 0x4f, 0xbe, 0x37, 0x0e, 0x95, 0x3e, 0x5e, 0x71, 0x39, 0x3f,
  0x4f, 0x88, 0xfe, 0xbd, 0x1f, 0x8b, 0x1f, 0xbf, 0xd6, 0x49, 0x90, 0xbd,
  0x34, 0x02, 0xeb, 0xbe, 0xc2, 0xdd, 0x82, 0xbe, 0x6e, 0x34, 0x8b, 0x3e,
  0xf8, 0x5d, 0xf4, 0x3e, 0x92, 0x64, 0x29, 0x3d, 0x5e, 0x7f, 0xfc, 0xbb,
  0x1b, 0x9d, 0x96, 0xbd, 0xff, 0x8e, 0x59, 0xbe, 0xb9, 0x5d, 0xb8, 0x3d,
  0x0f, 0xf3, 0xef, 0xbd, 0x51, 0xb3, 0x8f, 0xbe, 0x8c, 0xeb, 0x98, 0x3e,
  0x76, 0x76, 0xac, 0xbe, 0xc0, 0x34, 0xbe, 0x3e, 0x79, 0x18, 0x8b, 0x3e,
  0xca, 0x50, 0xee, 0xbd, 0x3e, 0x4f, 0x65, 0xbe, 0xd2, 0x1d, 0x96, 0x3d,
  0x5c, 0xa0, 0x81, 0x3e, 0x43, 0xc5, 0xe6, 0xbe, 0xaa, 0x79, 0x0a, 0x3f,
  0x19, 0xbb, 0x03, 0x3f, 0xa3, 0x6a, 0xb6, 0xbe, 0x82, 0x7f, 0x14, 0xbf,
  0xe1, 0x4e, 0x04, 0x3f, 0xf4, 0x88, 0xc8, 0x3e, 0x80, 0xfc, 0x45, 0xbf,
  0x1a, 0x35, 0x1b, 0xbf, 0xc0, 0x86, 0x80, 0x3f, 0x9d, 0x58, 0x38, 0xbe,
  0xd2, 0x2a, 0xf3, 0xbc, 0x6a, 0xf8, 0xc8, 0xbd, 0x0e, 0xcd, 0xab, 0x3e,
  0x60, 0x25, 0x0c, 0x3e, 0xbd, 0x08, 0x62, 0x3f, 0x0c, 0x02, 0xdc, 0xbe,
  0xf8, 0x6a, 0xb9, 0x3e, 0xe3, 0xf5, 0x2f, 0x3f, 0xf2, 0x68, 0x5e, 0x3f,
  0x64, 0x83, 0x55, 0x3e, 0xdc, 0xcc, 0x8f, 0xbe, 0xed, 0xa7, 0x0c, 0x3e,
  0x44, 0x46, 0x8f, 0xbe, 0x9d, 0x57, 0x99, 0xbe, 0xd6, 0xce, 0x34, 0x3f,
  0x61, 0x71, 0x0c, 0x3e, 0xc9, 0x73, 0x9e, 0x3e, 0x84, 0x2a, 0x09, 0xbf,
  0xf7, 0x12, 0x0a, 0x3e, 0x0c, 0xc5, 0x75, 0xbf, 0x05, 0x66, 0x36, 0xbe,
  0xfd, 0xf6, 0x35, 0x3f, 0xc7, 0x00, 0x35, 0x3c, 0xf9, 0x60, 0x28, 0x3e,
  0x73, 0x90, 0x9b, 0xbe, 0x79, 0x94, 0xb8, 0x3e, 0x65, 0x03, 0xaf, 0x3e,
  0xc3, 0x25, 0x0b, 0x3f, 0x28, 0x89, 0x60, 0x3d, 0x08, 0x99, 0x19, 0xbe,
  0xc1, 0x8a, 0x4d, 0xbe, 0x02, 0x29, 0xe6, 0x3e, 0xb2, 0x78, 0x97, 0xbe,
  0xcf, 0xa2, 0x88, 0xbd, 0x6a, 0xb4, 0x70, 0x3d, 0xe0, 0xcf, 0xf9, 0xbe,
  0xd0, 0xa7, 0xfd, 0x3e, 0x30, 0x3c, 0x64, 0xbf, 0x6a, 0x85, 0x77, 0xbf,
  0xb2, 0x80, 0xca, 0xbe, 0x80, 0xfc, 0x58, 0x3f, 0xb3, 0xaa, 0xbb, 0x3e,
  0x67, 0x33, 0x10, 0x3f, 0xb7, 0x37, 0x4e, 0xbf, 0x61, 0x7b, 0x29, 0xbe,
  0xcc, 0xc2, 0x8e, 0x3f, 0x79, 0x94, 0x0e, 0x3e, 0xe6, 0x45, 0x69, 0x3f,
  0x61, 0x7b, 0x90, 0xbe, 0x50, 0xda, 0x32, 0xbf, 0x40, 0xf5, 0x3c, 0xbf,
  0xc6, 0x46, 0x12, 0x3e, 0x55, 0xcf, 0xd7, 0xbe, 0x01, 0xf7, 0xf9, 0xbe,
  0xdd, 0xfc, 0x9b, 0xbf, 0xb5, 0xc5, 0x5d, 0xbd, 0xb3, 0xcf, 0x7e, 0xbf,
  0x02, 0x05, 0x4a, 0xbf, 0x6d, 0x62, 0x66, 0x3f, 0xd0, 0xf6, 0x0b, 0x3f,
  0x58, 0x44, 0x6d, 0x3f, 0xb1, 0xa9, 0x3a, 0xbf, 0xde, 0x91, 0x4c, 0xbf,
  0xe3, 0x39, 0x98, 0x3f, 0x35, 0xc1, 0xd8, 0x3f, 0x77, 0xda, 0x02, 0x3e,
  0x57, 0xee, 0xc0, 0x3f, 0xa0, 0xc8, 0xda, 0x3e, 0xf3, 0xf0, 0xef, 0x3e,
  0x36, 0x19, 0x72, 0xbf, 0xe5, 0x4d, 0x7a, 0x3e, 0x0e, 0xfd, 0xaa, 0x3e,
  0xad, 0x9c, 0x88, 0x3f, 0x93, 0x1b, 0x11, 0xbf, 0x13, 0xce, 0x85, 0xbf,
  0x46, 0x43, 0x30, 0xbe, 0xdc, 0x24, 0xa7, 0xbf, 0xb0, 0xd6, 0x1c, 0xbf,
  0x2b, 0xf1, 0x97, 0x3e, 0x1f, 0x1f, 0x19, 0xbf, 0xfb, 0x52, 0x7f, 0xbf,
  0x1a, 0xcf, 0xf3, 0xbe, 0xde, 0xd4, 0x5d, 0x3f, 0x68, 0x02, 0xac, 0xbf,
  0x6f, 0x3e, 0xa2, 0x3e, 0x69, 0x68, 0x31, 0xbe, 0x49, 0x64, 0xfd, 0x3d,
  0x2a, 0xab, 0x9e, 0x3e, 0x43, 0xe6, 0x17, 0xbf, 0x6f, 0xac, 0xaf, 0x3d,
  0x7e, 0xbb, 0x06, 0xbf, 0x7b, 0xd7, 0xef, 0x3e, 0xe8, 0x8a, 0x2a, 0x3f,
  0xb4, 0xe8, 0xef, 0xbe, 0x0b, 0x15, 0xfe, 0xbd, 0xce, 0xf1, 0xb5, 0xbe,
  0xe9, 0x59, 0x1c, 0xbd, 0xa2, 0xaa, 0x24, 0xbd, 0x6e, 0xc7, 0xc7, 0xbe,
  0xb6, 0x1f, 0x91, 0x3e, 0xa7, 0xce, 0xcf, 0xbe, 0xa9, 0x88, 0x17, 0x3e,
  0xd7, 0x2e, 0x14, 0x3e, 0x72, 0x74, 0xe3, 0x3c, 0x76, 0x96, 0xe0, 0x3e,
  0x23, 0xfa, 0x8e, 0xbe, 0xf3, 0xc8, 0xeb, 0x3d, 0x38, 0xce, 0xfc, 0xbd,
  0xa0, 0x6e, 0xa4, 0x3e, 0x21, 0x10, 0xc5, 0x3d, 0x4a, 0x2a, 0x86, 0xbe,
  0x81, 0xd6, 0xa6, 0xbd, 0xf1, 0xa8, 0xdf, 0xbe, 0x70, 0x85, 0x43, 0x3f,
  0x8e, 0x83, 0x0b, 0xbf, 0x2b, 0x3e, 0x9d, 0xbe, 0x3a, 0xb7, 0xdb, 0xbe,
  0x8f, 0xbe, 0xb9, 0xbd, 0x0a, 0x86, 0x34, 0xbe, 0x11, 0x41, 0x8c, 0xbd,
  0xe6, 0x7b, 0x2a, 0xbf, 0x89, 0x97, 0x5f, 0x3d, 0x15, 0xb9, 0xe3, 0x3e,
  0xf0, 0x86, 0xa5, 0x3e, 0x3d, 0xf1, 0x58, 0x3e, 0x6f, 0xcf, 0xd6, 0xbc,
  0xd0, 0x4c, 0x35, 0xbf, 0xcf, 0x8a, 0x39, 0x3e, 0x84, 0x18, 0xab, 0x3d,
  0xd5, 0x26, 0xbf, 0x3e, 0x95, 0x19, 0x24, 0xbf, 0xd0, 0x96, 0x1a, 0x3f,
  0xc4, 0x92, 0x6d, 0xbe, 0x5d, 0x32, 0x11, 0xbf, 0xed, 0x1c, 0xcb, 0x3e,
  0x6a, 0x5e, 0x5a, 0x3e, 0x14, 0xca, 0x5c, 0xbf, 0x1a, 0x7d, 0x0d, 0xbf,
  0x17, 0x22, 0xa4, 0xbe, 0x20, 0x60, 0xb3, 0x3e, 0xeb, 0x29, 0x78, 0xbe,
  0xc4, 0x90, 0xab, 0x3d, 0x6b, 0xbf, 0x2a, 0x3f, 0xb5, 0x7d, 0x0a, 0xbe,
  0x5f, 0xf8, 0x0e, 0x3f, 0xcf, 0x36, 0x9d, 0xbe, 0xce, 0xcf, 0xd6, 0x3e,
  0xd6, 0xa3, 0xc9, 0xbe, 0x28, 0x2f, 0x05, 0x3f, 0xc4, 0x65, 0xcf, 0x3d,
  0x03, 0x10, 0x35, 0x3e, 0x53, 0xe4, 0xca, 0x3f, 0xff, 0xf0, 0xb2, 0xbd,
  0xcb, 0xb9, 0x3e, 0xbf, 0xc3, 0xf1, 0xc6, 0xbe, 0x9d, 0x47, 0x4e, 0x3f,
  0x4a, 0xb5, 0x5c, 0xbf, 0x75, 0xf6, 0x00, 0xbe, 0x4b, 0x98, 0x4e, 0x3f,
  0x88, 0xd3, 0xe6, 0xbb, 0x49, 0x99, 0x27, 0xbf, 0x4f, 0xa1, 0x3c, 0x3e,
  0x12, 0xf0, 0x15, 0x3e, 0xd2, 0x3e, 0x79, 0xbe, 0xf7, 0x8a, 0x85, 0x3e,
  0x2e, 0x22, 0x3e, 0x3e, 0xad, 0x09, 0xf8, 0x3e, 0x89, 0xfd, 0x8d, 0x3d,
  0xb9, 0xae, 0x72, 0xbd, 0xa0, 0x3f, 0xa2, 0x3e, 0x5d, 0x20, 0x91, 0x3e,
  0x01, 0x32, 0xfb, 0x3d, 0x70, 0x04, 0x1f, 0xbf, 0xdf, 0xe5, 0xf6, 0xbe,
  0xcd, 0xef, 0x85, 0xbf, 0x5a, 0xbc, 0xb1, 0xbe, 0x1b, 0xae, 0xf9, 0xbe,
  0xaa, 0x16, 0x9d, 0xbd, 0x88, 0x39, 0x80, 0xbf, 0x44, 0xf8, 0x19, 0xbe,
  0xd4, 0x81, 0xaf, 0x3e, 0xc2, 0xcd, 0xcc, 0x3e, 0xb4, 0xf0, 0x66, 0x3c,
  0x0b, 0xf5, 0xaa, 0x3e, 0x61, 0x16, 0x19, 0x3f, 0xde, 0x7c, 0xd9, 0xbd,
  0x59, 0xf2, 0x74, 0x3e, 0x64, 0xcb, 0x68, 0xbe, 0xa6, 0xc6, 0x85, 0xbe,
  0xb4, 0x41, 0xf0, 0xbe, 0xab, 0x40, 0x4f, 0x3f, 0xd5, 0xef, 0xef, 0xbe,
  0x74, 0x0e, 0x7c, 0xbf, 0x6b, 0x6d, 0x5b, 0xbd, 0x64, 0x81, 0x7e, 0xbf,
  0x1c, 0x7f, 0xaa, 0xbd, 0xc0, 0x04, 0x1a, 0xbe, 0x08, 0x5e, 0xf8, 0xbd,
  0x4b, 0x29, 0x16, 0xbe, 0x81, 0x93, 0x53, 0xbf, 0x2c, 0x9c, 0xcc, 0xbe,
  0xb1, 0x87, 0x4c, 0xbe, 0xb3, 0x31, 0x94, 0x3b, 0x9a, 0x30, 0xc2, 0xbf,
  0xa2, 0xec, 0x29, 0x3f, 0xb1, 0x21, 0x83, 0x3e, 0xec, 0x98, 0xc8, 0xbe,
  0x36, 0x72, 0x4d, 0xbd, 0x3c, 0xc1, 0x58, 0xbe, 0x00, 0xa4, 0x3c, 0xbf,
  0x8d, 0x06, 0x5d, 0x3e, 0x78, 0x99, 0xb0, 0xbe, 0x74, 0xaa, 0x15, 0xbe,
  0x18, 0x50, 0xf5, 0x3e, 0x27, 0x4b, 0x81, 0x3f, 0x36, 0x9e, 0x1b, 0x3f,
  0xfd, 0xfb, 0x9d, 0xbe, 0x1a, 0x1a, 0x8a, 0x3d, 0x9b, 0xc9, 0xa1, 0xbe,
  0xf4, 0xac, 0xdf, 0x3e, 0x9a, 0xef, 0xa5, 0x3f, 0x63, 0x91, 0x59, 0xbe,
  0x25, 0x81, 0x0a, 0x3f, 0x1a, 0x8a, 0x04, 0xbf, 0xd9, 0x30, 0x26, 0xbf,
  0x49, 0x57, 0x84, 0xbf, 0xa6, 0x46, 0x1d, 0x3f, 0x4c, 0x5f, 0xad, 0xbf,
  0xf1, 0x70, 0x2b, 0xbe, 0xb7, 0x81, 0xc6, 0x3d, 0xd8, 0xe9, 0x0b, 0x3e,
  0xa6, 0x27, 0x14, 0xbd, 0xdc, 0x75, 0x86, 0xbb, 0x6f, 0x51, 0xc0, 0xbc,
  0x57, 0xce, 0xa9, 0xbd, 0x6f, 0x74, 0x18, 0xbe, 0xb0, 0xad, 0xed, 0x3b,
  0xe9, 0x3f, 0xdc, 0x3d, 0xa5, 0x52, 0x4e, 0xbd, 0x23, 0x49, 0x77, 0xbd,
  0x73, 0xaa, 0x39, 0x3d, 0xf0, 0x4d, 0x6c, 0x3b, 0x90, 0x2c, 0x20, 0xbe,
  0xec, 0xc9, 0x66, 0xbe, 0xfa, 0x7c, 0x82, 0x3e, 0x6a, 0x49, 0x2e, 0x3e,
  0xb1, 0x2f, 0x78, 0x3c, 0x85, 0xcf, 0x78, 0xbc, 0xd5, 0x54, 0xdf, 0x3d,
  0x50, 0xcd, 0x25, 0x3d, 0x34, 0x44, 0x37, 0xbe, 0xf0, 0x08, 0x7f, 0x3c,
  0x7f, 0xde, 0x73, 0xbe, 0x8b, 0x04, 0xb6, 0xbd, 0xc0, 0xa0, 0x08, 0xbe,
  0xe8, 0xa8, 0x20, 0xbe, 0x9e, 0xbd, 0x9e, 0xbc, 0x62, 0x4a, 0x37, 0xbc,
  0xc8, 0x71, 0x0a, 0x3e, 0xb2, 0xc4, 0x5e, 0x3c, 0xc6, 0xac, 0xcf, 0xbd,
  0xd0, 0x53, 0x05, 0xbe, 0xd2, 0x09, 0x3a, 0xbe, 0x45, 0xe5, 0x73, 0x3e,
  0x31, 0x41, 0x53, 0xbe, 0xb2, 0xd5, 0xb5, 0x3c, 0xc3, 0xf3, 0x73, 0xbe,
  0xd8, 0x87, 0x48, 0xbe, 0x53, 0xcf, 0x55, 0xbc, 0x4a, 0xa2, 0x40, 0x3d,
  0x8c, 0xea, 0x74, 0xbe, 0xac, 0x53, 0x4b, 0xbe, 0xa2, 0x80, 0x7e, 0xbe,
  0xfe, 0x88, 0xd5, 0x3d, 0xaf, 0x0a, 0x86, 0xbe, 0xa6, 0xa1, 0xa7, 0x3d,
  0x60, 0x54, 0xf4, 0x3c, 0x95, 0x59, 0x10, 0xbe, 0x01, 0x89, 0xed, 0xbe,
  0x80, 0x9b, 0xde, 0x3e, 0x30, 0x9c, 0x19, 0x3e, 0xdc, 0x3d, 0xb8, 0x3d,
  0x90, 0x81, 0x8a, 0x3e, 0xc1, 0xd3, 0x8c, 0x3d, 0x35, 0xf8, 0xb4, 0x3d,
  0x80, 0xf2, 0x1c, 0xc0, 0x71, 0x0f, 0x8a, 0x3e, 0x67, 0x08, 0xcc, 0x3e,
  0x98, 0x17, 0xc2, 0x3e, 0xae, 0x9c, 0x03, 0xbe, 0xb1, 0xc1, 0x02, 0xbf,
  0x80, 0x4f, 0x8f, 0x3d, 0xa2, 0x2a, 0x96, 0x3c, 0x27, 0x68, 0x67, 0xbd,
  0x17, 0x03, 0x16, 0x3d, 0x2f, 0x54, 0x17, 0x3f, 0x16, 0xd8, 0xea, 0xbd,
  0x4a, 0x3d, 0x91, 0x3e, 0x02, 0x51, 0x9a, 0xbe, 0xa4, 0xbb, 0xf2, 0x3e,
  0x76, 0x0a, 0x88, 0x3e, 0x7c, 0x29, 0xcc, 0x3d, 0xb8, 0xdf, 0x18, 0x3e,
  0x9a, 0x9d, 0x9a, 0x3e, 0xfc, 0x6c, 0xb3, 0xbd, 0x43, 0xae, 0x9f, 0x3e,
  0x10, 0x23, 0xb9, 0xbe, 0x71, 0xab, 0x1b, 0xbf, 0x66, 0x53, 0xf8, 0xbe,
  0xc3, 0x3f, 0x44, 0x3e, 0xa4, 0x5f, 0xba, 0x3e, 0x61, 0xf9, 0x48, 0x3c,
  0x59, 0xd5, 0x83, 0xbf, 0x5a, 0x73, 0xde, 0x3e, 0x35, 0xbb, 0xe3, 0xbc,
  0xd7, 0x0c, 0x01, 0xbe, 0xa8, 0xd9, 0x5e, 0xbe, 0x4c, 0x00, 0x98, 0x3e,
  0x06, 0x4c, 0x4f, 0x3c, 0x47, 0x85, 0x05, 0x3e, 0x7a, 0x03, 0x0f, 0x3e,
  0xfd, 0x4d, 0xc7, 0x3c, 0x2c, 0xb7, 0x08, 0x3e, 0x0a, 0x86, 0x57, 0x3d,
  0x9b, 0x57, 0x97, 0x3a, 0x14, 0x98, 0xa9, 0x3e, 0xf5, 0x59, 0x7e, 0x3e,
  0x6d, 0x2d, 0x91, 0xbd, 0x75, 0xc9, 0xac, 0xbb, 0xa6, 0x80, 0xac, 0xbd,
  0x29, 0xc2, 0x0e, 0x3f, 0x35, 0x9c, 0xd4, 0xbd, 0x88, 0x56, 0xa6, 0xbe,
  0xe3, 0x82, 0x0c, 0xc0, 0xca, 0xb2, 0x8e, 0xbe, 0x0a, 0x79, 0x99, 0x3c,
  0x14, 0xc9, 0x8c, 0x3e, 0x5f, 0x54, 0x94, 0xbe, 0x5e, 0x50, 0xce, 0x3e,
  0x27, 0x39, 0xca, 0x3e, 0xd1, 0x34, 0x66, 0x3e, 0x97, 0xda, 0x87, 0x3e,
  0x42, 0xaf, 0x8f, 0x3e, 0x8c, 0x43, 0x01, 0x3e, 0xd3, 0xd6, 0x45, 0xbf,
  0xf8, 0xcb, 0x72, 0x3c, 0x00, 0xa8, 0x62, 0xbf, 0xba, 0x82, 0x1f, 0xbe,
  0xcd, 0x31, 0x18, 0x3f, 0x3a, 0xe7, 0xe8, 0x3d, 0x9c, 0xd9, 0x8b, 0x3e,
  0xbb, 0xf6, 0x9b, 0x3e, 0xb4, 0x5f, 0xbd, 0xbe, 0x3c, 0x9e, 0xb4, 0xbd,
  0xf3, 0xdb, 0xc2, 0x3b, 0x0d, 0xad, 0x13, 0x3e, 0x41, 0xbc, 0x4f, 0xbf,
  0x42, 0x1c, 0x5c, 0x3f, 0x5d, 0x44, 0xef, 0xbd, 0xbc, 0xbe, 0x2b, 0xbe,
  0x3d, 0x67, 0x7b, 0xbe, 0x7e, 0x0e, 0xea, 0x3d, 0x64, 0xd1, 0xbd, 0xbe,
  0xc7, 0x04, 0x26, 0xbe, 0xdf, 0xd0, 0xe3, 0x3e, 0xbd, 0xfe, 0x79, 0x3e,
  0xe7, 0xcb, 0xa1, 0xbd, 0xbe, 0x2d, 0x9c, 0x3e, 0x4f, 0xcb, 0x05, 0x3f,
  0xf2, 0x62, 0x96, 0xbd, 0xba, 0xc4, 0xc4, 0xbe, 0x39, 0xff, 0xef, 0xbd,
  0x64, 0x82, 0x8f, 0x3e, 0x78, 0xa8, 0x1c, 0xbf, 0xd9, 0x45, 0x36, 0xbd,
  0x5a, 0xbf, 0x92, 0x3e, 0xbb, 0x85, 0x37, 0xbf, 0x94, 0x99, 0x00, 0x3f,
  0xcb, 0xff, 0xe4, 0xbe, 0x97, 0xf8, 0xa9, 0x3e, 0x24, 0x94, 0x71, 0xbe,
  0xcc, 0x84, 0x9e, 0xbe, 0x4b, 0x63, 0x9a, 0xbd, 0x69, 0x61, 0xbf, 0xbe,
  0x94, 0x5c, 0x35, 0xbd, 0xd0, 0xa0, 0x34, 0x3f, 0x62, 0x78, 0xc7, 0xbe,
  0x24, 0x96, 0x25, 0x3f, 0x2b, 0x2c, 0x3f, 0xbd, 0x51, 0x51, 0x97, 0x3e,
  0xf9, 0x53, 0x59, 0xbe, 0x64, 0xe2, 0x4d, 0x3d, 0xc1, 0x96, 0x05, 0xbd,
  0x01, 0x2a, 0x7d, 0xbe, 0x46, 0x82, 0x24, 0xbe, 0x6b, 0xa7, 0x8a, 0xbe,
  0x7b, 0x79, 0x91, 0xbf, 0x70, 0x04, 0x0d, 0xbf, 0xe2, 0x97, 0xaf, 0xbe,
  0xb2, 0x49, 0xec, 0xbe, 0x22, 0x28, 0xa0, 0x3e, 0xdf, 0x1f, 0x85, 0x3e,
  0x7d, 0xef, 0xce, 0xbe, 0xcf, 0xb0, 0x7d, 0xbe, 0x1d, 0x03, 0x2f, 0x3b,
  0xbb, 0xa4, 0x94, 0x3d, 0xa1, 0x0b, 0xa2, 0xbe, 0xba, 0x4b, 0x6f, 0x3e,
  0xd5, 0xba, 0x10, 0xbd, 0xb8, 0x63, 0x09, 0xbd, 0x5a, 0xad, 0xcf, 0x3e,
  0x54, 0xd0, 0x6f, 0xbe, 0x06, 0xed, 0xa9, 0x3e, 0x47, 0x12, 0xfa, 0xbe,
  0x5e, 0xc0, 0x68, 0xbf, 0x47, 0xf8, 0x93, 0x3d, 0x79, 0xa8, 0xa7, 0x3e,
  0xaa, 0xe5, 0xc2, 0x3e, 0x1f, 0x34, 0x16, 0xbf, 0x25, 0x37, 0x78, 0x3e,
  0x33, 0xa8, 0x9b, 0xbd, 0xab, 0x0a, 0x5b, 0x3d, 0x8d, 0x21, 0x0a, 0x3f,
  0x92, 0xdb, 0x1a, 0xbe, 0xb1, 0x30, 0xfa, 0xbd, 0x6d, 0x1f, 0x14, 0x3f,
  0x14, 0x11, 0xb9, 0xbe, 0x8e, 0xa2, 0x05, 0xbe, 0x37, 0x9d, 0xd4, 0xbe,
  0x86, 0xbe, 0xa0, 0x3e, 0x0c, 0x96, 0xf7, 0x3c, 0x5f, 0x57, 0x45, 0x3e,
  0x5b, 0x4d, 0x9d, 0x3d, 0x71, 0xc9, 0xed, 0x3c, 0x87, 0x42, 0xd6, 0xbe,
  0x56, 0x3a, 0xf7, 0xbd, 0x4b, 0x93, 0x6b, 0x3e, 0x57, 0xcb, 0x4c, 0xbe,
  0x12, 0x71, 0xcb, 0xbc, 0xc0, 0xf5, 0x57, 0x3f, 0xc0, 0xd7, 0x37, 0xbf,
  0x5f, 0xc7, 0xcc, 0xbf, 0x84, 0x99, 0x5b, 0xbe, 0x05, 0xf1, 0x96, 0x3d,
  0xe4, 0x30, 0xa0, 0xbb, 0x7c, 0x9a, 0xf3, 0x3d, 0x8b, 0xf8, 0x86, 0xbe,
  0x81, 0x15, 0x2d, 0xbf, 0x1b, 0xb6, 0xa7, 0xbe, 0xe1, 0x38, 0xf8, 0xbe,
  0xb4, 0x9d, 0x09, 0x3f, 0x06, 0xf3, 0x67, 0xbe, 0x0f, 0x20, 0x18, 0xbf,
  0xb5, 0x44, 0xf9, 0xbe, 0xc9, 0x74, 0x38, 0xbf, 0x87, 0x62, 0x08, 0xbf,
  0xc0, 0xba, 0x05, 0xbf, 0x9c, 0xf0, 0xa8, 0x3d, 0xbf, 0x51, 0xb9, 0xbe,
  0x6b, 0x8f, 0x13, 0x3e, 0x8e, 0xbb, 0xad, 0x3f, 0x48, 0xaf, 0x64, 0xbf,
  0x6f, 0x73, 0x8f, 0xbe, 0x83, 0x54, 0x14, 0x3e, 0xe6, 0x18, 0x83, 0x3d,
  0xaf, 0xfb, 0x24, 0xbf, 0x7a, 0x01, 0x83, 0xbe, 0x3d, 0xd1, 0x9f, 0x3e,
  0xe1, 0x15, 0x62, 0xbf, 0x78, 0x89, 0x34, 0xbf, 0x42, 0x7b, 0x0d, 0xbf,
  0x68, 0xbb, 0x04, 0x3e, 0xc3, 0x28, 0xa0, 0xbe, 0x3d, 0x14, 0x64, 0x3f,
  0xf6, 0x7d, 0x2c, 0x3f, 0xe4, 0xea, 0x66, 0xbe, 0x37, 0x6c, 0xeb, 0x3e,
  0xa9, 0x6e, 0xc5, 0x3e, 0xf5, 0x85, 0x91, 0xbd, 0xa1, 0x54, 0x07, 0x3f,
  0xac, 0xf6, 0xaa, 0xbe, 0xe5, 0xb7, 0x9f, 0xbe, 0xaa, 0x02, 0x07, 0xbf,
  0xb4, 0x1d, 0x1a, 0xbf, 0xcd, 0xec, 0x4f, 0x3e, 0x42, 0xa5, 0x9e, 0x3e,
  0x40, 0xf4, 0xc1, 0xbe, 0x27, 0x2b, 0x29, 0x40, 0xd8, 0xeb, 0x32, 0x3f,
  0xa7, 0xff, 0x2e, 0xbf, 0xf5, 0x9a, 0x56, 0x3f, 0xd1, 0x41, 0x0c, 0x3f,
  0xc5, 0x0a, 0x68, 0xbe, 0xf9, 0xda, 0xa0, 0x3e, 0x35, 0x3a, 0xaf, 0xbe,
  0xa5, 0xc3, 0x8b, 0x3e, 0x97, 0xec, 0x87, 0x3e, 0xee, 0x36, 0x86, 0x3e,
  0xb8, 0x96, 0x29, 0x3e, 0xdb, 0x7e, 0x02, 0x3f, 0x74, 0x59, 0x24, 0x3f,
  0x16, 0x32, 0x93, 0x3e, 0xd2, 0x40, 0x11, 0xbf, 0x23, 0x5d, 0xee, 0xbd,
  0x48, 0x79, 0xa6, 0x3e, 0xc6, 0x16, 0xb5, 0xbe, 0x49, 0x48, 0x3b, 0x3f,
  0xd1, 0xba, 0x43, 0xbf, 0xf3, 0xd4, 0x2e, 0x3f, 0x9b, 0xb3, 0xa3, 0xbe,
  0x0a, 0x56, 0xf1, 0xbe, 0xa9, 0x05, 0x81, 0xbe, 0xf6, 0xbd, 0xb1, 0x3d,
  0x00, 0xb1, 0x06, 0xbe, 0xc9, 0x25, 0x3b, 0xbf, 0x62, 0x20, 0x02, 0x3f,
  0x18, 0xff, 0x3b, 0xbe, 0xb0, 0x85, 0x3d, 0xbf, 0xa6, 0x6c, 0xb3, 0xbe,
  0x91, 0xed, 0xb9, 0x3d, 0x3a, 0xf3, 0xa2, 0xbf, 0x41, 0x12, 0xf8, 0xbe,
  0x6a, 0x3b, 0xfc, 0x3d, 0xe5, 0xae, 0xdc, 0x3e, 0xb6, 0x89, 0xa9, 0xbd,
  0x91, 0xb5, 0x44, 0xbe, 0x7c, 0x69, 0x9d, 0x3e, 0xbf, 0x35, 0x97, 0x3e,
  0x22, 0x23, 0xfa, 0x3e, 0xe3, 0xd5, 0x78, 0xbc, 0x53, 0xf6, 0x83, 0x3d,
  0x1a, 0x27, 0x50, 0xbd, 0xd4, 0x81, 0xac, 0x3e, 0x00, 0x70, 0x8e, 0xbc,
  0x60, 0xad, 0x8a, 0x3e, 0x41, 0x6b, 0xac, 0x3f, 0x78, 0x74, 0x47, 0x3e,
  0x7a, 0x38, 0x1e, 0xbf, 0x18, 0xf1, 0x34, 0x3e, 0x9f, 0xce, 0x94, 0x3f,
  0x06, 0x4a, 0xa0, 0xbf, 0xc7, 0x4c, 0x91, 0xbe, 0xf0, 0x55, 0xbe, 0x3d,
  0xbb, 0x76, 0x03, 0x3f, 0xa3, 0x20, 0x99, 0xbe, 0x34, 0x52, 0x5d, 0x3e,
  0x84, 0x8c, 0x3e, 0xbf, 0xb6, 0x71, 0x5b, 0x3f, 0x4e, 0x35, 0x47, 0x3f,
  0x13, 0x9a, 0x58, 0xbe, 0x1c, 0xb0, 0x0c, 0xbe, 0xf9, 0xad, 0x6a, 0x3e,
  0x6a, 0xca, 0x6a, 0xbd, 0x7d, 0x75, 0x49, 0x3f, 0xe4, 0x8d, 0x5a, 0x3e,
  0x4a, 0xdb, 0x35, 0x3d, 0x97, 0xaf, 0x51, 0xbf, 0x17, 0xf9, 0x14, 0xbf,
  0xc3, 0x80, 0xeb, 0xbf, 0x9d, 0x6a, 0xd6, 0xbe, 0xf6, 0x75, 0x86, 0xbe,
  0xf4, 0x4a, 0xd9, 0xbd, 0xf8, 0x9a, 0xd6, 0xbf, 0x4a, 0x33, 0xbe, 0x3e,
  0x20, 0xd8, 0x39, 0x3e, 0x10, 0xac, 0x5b, 0xbe, 0xfa, 0x0e, 0x38, 0x3e,
  0xff, 0x78, 0x06, 0x3e, 0x7c, 0x4f, 0x75, 0x3e, 0x23, 0xf8, 0x88, 0xbd,
  0x72, 0xbf, 0xb9, 0x3f, 0xd4, 0x05, 0xc3, 0xbd, 0x51, 0xde, 0xf2, 0x3c,
  0xc8, 0x69, 0x99, 0x3c, 0x70, 0x74, 0x3e, 0xbf, 0x42, 0x64, 0x36, 0x3f,
  0x9e, 0xb0, 0x1c, 0xbe, 0xeb, 0x64, 0x1b, 0xbe, 0xe8, 0x51, 0x15, 0x3f,
  0xce, 0x40, 0xbf, 0x3d, 0x49, 0xf0, 0x33, 0x3f, 0xc3, 0xb9, 0xbc, 0x3e,
  0xd2, 0x22, 0x28, 0xbe, 0xdd, 0x6d, 0x14, 0x3f, 0x29, 0xa0, 0xdf, 0x3c,
  0x75, 0xf1, 0x31, 0xbe, 0x74, 0xb1, 0xd1, 0x3f, 0x09, 0xd1, 0x8b, 0xbe,
  0x66, 0x8e, 0xa3, 0x3e, 0x04, 0xb8, 0x3c, 0xbf, 0xad, 0xf6, 0x16, 0xbe,
  0xde, 0xab, 0xc1, 0x3f, 0x19, 0xbf, 0xd9, 0x3f, 0xc0, 0x57, 0x16, 0xbf,
  0x94, 0xd9, 0xe1, 0xbe, 0x7d, 0xd5, 0xc7, 0x3e, 0xe6, 0xe8, 0xce, 0x3f,
  0x1c, 0xf0, 0x14, 0x3f, 0x74, 0x84, 0x91, 0x3f, 0xfb, 0x2f, 0x69, 0x3f,
  0xb5, 0x33, 0x32, 0x3f, 0x5c, 0xac, 0x1e, 0xbf, 0x09, 0xd8, 0x93, 0xbe,
  0x99, 0x4d, 0x66, 0x3e, 0x93, 0x4e, 0xb6, 0xbe, 0x5b, 0x83, 0x19, 0x3d,
  0xfa, 0x5a, 0x0a, 0xbe, 0xd0, 0xe5, 0x41, 0xbf, 0x4f, 0xba, 0xbd, 0xbe,
  0x1b, 0x03, 0xe0, 0xbc, 0xa5, 0x84, 0x12, 0x3e, 0x99, 0x75, 0x37, 0xbd,
  0xe7, 0x12, 0x4b, 0x3f, 0xfa, 0xa6, 0xb9, 0xbe, 0x26, 0xbe, 0x68, 0xbd,
  0x02, 0x18, 0x6f, 0x3d, 0xca, 0xc7, 0xe0, 0x3e, 0xb5, 0xe1, 0x24, 0x3f,
  0x45, 0x28, 0x2e, 0xbe, 0xcf, 0x27, 0xd8, 0xbe, 0x25, 0xdf, 0x2e, 0x3f,
  0x6d, 0xab, 0xf7, 0xbe, 0x7a, 0x52, 0x08, 0xbf, 0x91, 0x48, 0x42, 0xbd,
  0x9e, 0x8a, 0xe7, 0x3e, 0x5c, 0x94, 0xc7, 0xbe, 0xf9, 0xab, 0x36, 0x3e,
  0xd5, 0x50, 0xae, 0xbe, 0xa7, 0x45, 0xc8, 0xbe, 0x8b, 0x44, 0xd6, 0x3e,
  0xa2, 0xb1, 0x8c, 0x3c, 0xbe, 0x5f, 0x15, 0xbf, 0xa0, 0xf6, 0x4c, 0x3e,
  0xd4, 0xbc, 0x35, 0xbf, 0x74, 0x50, 0xba, 0x3c, 0xb9, 0xab, 0x24, 0x3f,
  0xd1, 0x9e, 0x29, 0x3f, 0x6a, 0x61, 0x0f, 0x3f, 0x98, 0xc5, 0x86, 0xbd,
  0xbf, 0x63, 0xed, 0x3e, 0xa4, 0x8c, 0x9e, 0xbd, 0x41, 0xf4, 0xff, 0x3e,
  0xd4, 0xf3, 0x34, 0xbd, 0x0e, 0xe2, 0xfd, 0x3d, 0x5b, 0x10, 0x83, 0x3e,
  0xdc, 0x5e, 0x36, 0xbe, 0x44, 0x36, 0x43, 0x3e, 0x03, 0x00, 0x95, 0xbe,
  0xae, 0x6d, 0x85, 0xbe, 0xfd, 0x74, 0xe4, 0xbc, 0x5b, 0x68, 0xe0, 0x3e,
  0x09, 0xf5, 0x10, 0xbf, 0x21, 0x43, 0x4a, 0x3e, 0x5d, 0x5c, 0xf2, 0xbe,
  0x2e, 0xfb, 0xa6, 0x3e, 0x19, 0x0b, 0x45, 0xbf, 0x99, 0x86, 0xb3, 0x3e,
  0x70, 0xf7, 0xaf, 0x3e, 0x69, 0x02, 0x77, 0xbc, 0xf0, 0xa6, 0x25, 0x3f,
  0x46, 0x7c, 0x8f, 0x3e, 0x72, 0x47, 0x1a, 0xbe, 0x06, 0xff, 0x7a, 0xbe,
  0x62, 0x60, 0x95, 0xbe, 0x8b, 0x10, 0xf3, 0xbd, 0xe1, 0xe1, 0xdc, 0x3d,
  0x08, 0xd5, 0x18, 0xbe, 0x5d, 0x2d, 0x36, 0x3d, 0xdc, 0x7a, 0x8c, 0xbe,
  0x2c, 0xe3, 0x23, 0xbe, 0xac, 0x6f, 0xe1, 0x3d, 0xd9, 0x76, 0xb9, 0xbd,
  0x1c, 0xe9, 0xd5, 0x3d, 0xeb, 0x4d, 0x10, 0xbe, 0x30, 0x69, 0xb6, 0x3d,
  0x38, 0xd7, 0x6e, 0x3d, 0x7a, 0x24, 0xb6, 0xbd, 0x72, 0x8a, 0x24, 0xbe,
  0x5f, 0x3a, 0x75, 0xbe, 0x3e, 0x42, 0x8e, 0xbd, 0xcb, 0x88, 0xb3, 0xbd,
  0x97, 0xa6, 0x12, 0x3e, 0x3a, 0xbf, 0x16, 0x3e, 0xa9, 0x25, 0xc9, 0xbe,
  0xaf, 0x66, 0x87, 0x3c, 0xed, 0x02, 0x9e, 0xbc, 0x3f, 0x94, 0x62, 0xbe,
  0x07, 0x6c, 0x61, 0xbd, 0x58, 0x60, 0x10, 0x3e, 0x97, 0x08, 0x96, 0x3d,
  0x96, 0xc5, 0xa8, 0xbc, 0x1a, 0x2b, 0x84, 0xbd, 0xca, 0x2f, 0x22, 0xbe,
  0x6f, 0x6c, 0x09, 0xbe, 0xdb, 0x33, 0x9e, 0xbe, 0x8f, 0x6b, 0x46, 0x3d,
  0x93, 0x75, 0xb6, 0x3c, 0x65, 0xb1, 0x49, 0x3c, 0x2b, 0x20, 0x99, 0x3d,
  0xaa, 0x34, 0x03, 0xbe, 0x62, 0xa6, 0x7c, 0xbe, 0x27, 0x22, 0x46, 0xbe,
  0x8e, 0x7f, 0x8c, 0x3d, 0xf5, 0x64, 0x00, 0xbd, 0x9a, 0x92, 0xb4, 0xbe,
  0x23, 0xfd, 0xa6, 0xbe, 0xa0, 0x24, 0xbc, 0xbe, 0xfe, 0xb2, 0xad, 0xbe,
  0xe8, 0x3d, 0x9b, 0xbe, 0xf4, 0x9a, 0x8a, 0xbf, 0x5e, 0xdb, 0xa7, 0x3e,
  0x1b, 0x44, 0x6c, 0xbe, 0x3a, 0xf9, 0xda, 0xbf, 0xf9, 0xb9, 0xa6, 0xbe,
  0xdb, 0xfe, 0x54, 0x3e, 0x85, 0xa0, 0x26, 0x3f, 0xcd, 0xa4, 0x9b, 0xbc,
  0xe7, 0x56, 0xd5, 0x3e, 0x4a, 0xc7, 0x05, 0xbe, 0x94, 0x1b, 0x33, 0xbd,
  0x11, 0x11, 0x95, 0xbe, 0x3c, 0x0e, 0x57, 0xbf, 0xda, 0xfd, 0x63, 0x3e,
  0xbe, 0x03, 0x46, 0xbe, 0xd0, 0x9d, 0xa5, 0x3e, 0xff, 0x4f, 0x13, 0x3e,
  0xdc, 0x33, 0x0f, 0x3f, 0x98, 0x3a, 0x84, 0x3f, 0xd5, 0xd9, 0x03, 0x3f,
  0xd4, 0x1b, 0xb5, 0xbf, 0xe3, 0x04, 0xc6, 0x3e, 0x09, 0xf5, 0xcc, 0x3e,
  0x4e, 0xc2, 0xc2, 0xbf, 0x5e, 0x6e, 0x0a, 0xbf, 0x9a, 0x54, 0x35, 0x3f,
  0x63, 0x2b, 0x15, 0x3f, 0x0e, 0x5c, 0xe2, 0x3e, 0x3e, 0x22, 0x02, 0xbf,
  0x32, 0x68, 0xbc, 0xbf, 0x1d, 0x08, 0x26, 0x3e, 0x61, 0xe8, 0x1d, 0x3e,
  0x3a, 0x9a, 0x23, 0xbc, 0x38, 0x00, 0xc8, 0xbd, 0xd8, 0x11, 0x51, 0x3e,
  0x3b, 0x3d, 0xc2, 0x3d, 0x2c, 0xb0, 0xd3, 0x3c, 0xcc, 0xd7, 0x0d, 0xbf,
  0x6b, 0x1d, 0xcf, 0xbc, 0x0e, 0xbc, 0x8e, 0xbd, 0xc3, 0x77, 0x56, 0xbf,
  0x31, 0x4e, 0xf4, 0xbf, 0xcb, 0xbb, 0x3a, 0xbf, 0x3f, 0x38, 0x5b, 0xbf,
  0xa7, 0x49, 0x03, 0xbf, 0x9b, 0x62, 0xc8, 0xbf, 0x7a, 0xbd, 0x54, 0xbe,
  0x8b, 0x89, 0xed, 0x3e, 0xdf, 0x6c, 0x42, 0xbe, 0x05, 0x57, 0x50, 0xbe,
  0xfc, 0x27, 0xef, 0x3c, 0x12, 0x0f, 0x7f, 0x3c, 0x61, 0xe1, 0xee, 0xbd,
  0xed, 0x9b, 0x4e, 0x3d, 0x10, 0x8a, 0x94, 0x3d, 0x6d, 0x56, 0x19, 0x3e,
  0x7a, 0xe2, 0x44, 0xbe, 0x71, 0xd9, 0x51, 0x3e, 0x3e, 0xd4, 0x49, 0x3d,
  0x17, 0x40, 0x37, 0xbe, 0xa7, 0x55, 0x87, 0xbd, 0xef, 0xff, 0x6f, 0x3e,
  0xfc, 0x89, 0x07, 0xbe, 0x00, 0x66, 0x23, 0x3e, 0x5c, 0x45, 0x13, 0xbd,
  0x9a, 0x23, 0x38, 0xbd, 0xb0, 0x38, 0xb3, 0x3d, 0x93, 0x64, 0xe5, 0x3c,
  0x24, 0x95, 0xb6, 0xbd, 0xe3, 0xee, 0x65, 0xbe, 0x7e, 0x15, 0x9a, 0xbe,
  0xaf, 0x02, 0xf7, 0x3c, 0xc6, 0x57, 0x46, 0xbe, 0x5b, 0xcb, 0x0c, 0xbe,
  0xe5, 0x0a, 0x13, 0xbe, 0xdd, 0x8c, 0xab, 0xbe, 0x42, 0x2b, 0x78, 0x3e,
  0xfb, 0xc8, 0xd7, 0x3b, 0x4d, 0xde, 0xaa, 0xbd, 0xbb, 0xe5, 0x6e, 0xbe,
  0x87, 0x8a, 0xa3, 0xbe, 0x67, 0x31, 0x5d, 0x3e, 0xff, 0xaf, 0x80, 0x3e,
  0x72, 0x5c, 0xdb, 0xbd, 0x1b, 0x75, 0xbd, 0xbd, 0x6a, 0x23, 0xcd, 0xbd,
  0x7c, 0x0a, 0x59, 0x3d, 0xfc, 0xb6, 0xa8, 0xbe, 0x5d, 0x15, 0x36, 0xbd,
  0xc7, 0xce, 0x44, 0x3c, 0x58, 0x71, 0x34, 0x3e, 0xfd, 0x0a, 0xc2, 0xbd,
  0xdb, 0x74, 0xfb, 0x3d, 0x73, 0x73, 0xc0, 0xbd, 0x32, 0x4f, 0x4e, 0x3e,
  0xfd, 0x3d, 0xc0, 0xbd, 0x3e, 0xdb, 0xff, 0xff, 0x04, 0x00, 0x00, 0x00,
  0x00, 0x12, 0x00, 0x00, 0x05, 0x92, 0xf9, 0x3e, 0xcd, 0x88, 0x0b, 0xbf,
  0xa4, 0x3b, 0x11, 0xbf, 0x4d, 0x46, 0x0b, 0x3f, 0xdc, 0x54, 0x0b, 0x3e,
  0xb4, 0xc7, 0x2d, 0x3e, 0x62, 0x9d, 0x24, 0xbf, 0x04, 0xc3, 0x42, 0x3e,
  0xc8, 0xff, 0x85, 0xbe, 0x86, 0x9c, 0xc2, 0xbe, 0xd8, 0xed, 0x40, 0x3f,
  0x05, 0xb1, 0xe6, 0x3d, 0xca, 0x95, 0xce, 0xbe, 0x8d, 0x14, 0x42, 0xbe,
  0x30, 0xd9, 0xbb, 0xbd, 0xb8, 0x54, 0xd0, 0x3e, 0xfb, 0x42, 0x14, 0xbe,
  0x20, 0x75, 0x45, 0xbe, 0x79, 0xb4, 0x76, 0x3d, 0x78, 0xe8, 0x01, 0x3f,
  0x50, 0x3b, 0x01, 0xbf, 0xf5, 0xc0, 0xad, 0x3e, 0xdb, 0x86, 0xc2, 0xbf,
  0x37, 0x4e, 0x0f, 0x3f, 0x0f, 0xb6, 0x14, 0xbe, 0x94, 0x91, 0x21, 0xbf,
  0x33, 0xef, 0x96, 0x3e, 0x0f, 0xaa, 0x0d, 0x3f, 0x63, 0xfa, 0xc4, 0x3e,
  0xf6, 0x0a, 0x45, 0x3f, 0x18, 0x0e, 0x5d, 0xbf, 0xde, 0xb4, 0xda, 0x3d,
  0xc9, 0x6a, 0x1f, 0xbf, 0x44, 0x3b, 0x68, 0xbe, 0xbc, 0x53, 0x99, 0x3e,
  0xf7, 0x2e, 0xda, 0x3c, 0x45, 0x04, 0x5f, 0xbf, 0xd8, 0xe8, 0x26, 0x3e,
  0x1b, 0xf7, 0x79, 0x3e, 0x9e, 0x95, 0x9d, 0x3e, 0x56, 0x7b, 0x3a, 0x3e,
  0x4c, 0xcf, 0xba, 0xbe, 0xc2, 0xdc, 0xf7, 0x3e, 0xcb, 0x35, 0x26, 0x3f,
  0xad, 0x82, 0xf8, 0xbd, 0x63, 0x8f, 0x29, 0xbe, 0x2c, 0x6b, 0x23, 0xbf,
  0xec, 0x30, 0xa1, 0x3e, 0xaa, 0x61, 0xd5, 0xbd, 0xdc, 0xde, 0x5d, 0x3e,
  0x79, 0xd3, 0xb2, 0x3d, 0xbe, 0x97, 0x12, 0xbf, 0x36, 0xf5, 0xb5, 0xbd,
  0x72, 0x5c, 0x09, 0x3f, 0x43, 0xe6, 0x22, 0xbe, 0x7c, 0x54, 0x42, 0xbe,
  0xc2, 0xf2, 0x26, 0xbf, 0xf7, 0x7e, 0x4a, 0xbe, 0xe6, 0xc5, 0x03, 0xbf,
  0xfe, 0xfa, 0xc9, 0xbe, 0xd5, 0xde, 0x61, 0x3e, 0xcd, 0xa2, 0x9c, 0x3c,
  0x1f, 0x66, 0x0d, 0x3e, 0x7f, 0x5e, 0x46, 0x3d, 0x91, 0xb9, 0x51, 0xbe,
  0x02, 0x0d, 0x70, 0xbe, 0xe2, 0x1c, 0x86, 0x3e, 0xca, 0x43, 0xcd, 0x3e,
  0x63, 0x31, 0x40, 0xbe, 0x5c, 0x89, 0xda, 0xbe, 0xac, 0x26, 0x1e, 0xbf,
  0x05, 0xcf, 0x26, 0x3e, 0x74, 0x95, 0xfe, 0xbc, 0xc6, 0xe0, 0x0b, 0x3f,
  0x14, 0x44, 0x01, 0xbe, 0xc0, 0x40, 0x42, 0xbe, 0x33, 0xff, 0x01, 0xbf,
  0xa5, 0x55, 0xeb, 0x3d, 0x3c, 0x18, 0x2d, 0x3f, 0x06, 0x15, 0xb3, 0xbc,
  0xd9, 0x5c, 0x26, 0xbf, 0xd4, 0x35, 0x0f, 0xbc, 0xc1, 0xdf, 0x91, 0xbf,
  0x9a, 0x75, 0xbc, 0x3e, 0xd0, 0x2d, 0xc0, 0x3e, 0xa2, 0x81, 0xab, 0x3e,
  0xf6, 0x05, 0x2e, 0x3e, 0x71, 0xfc, 0x4f, 0x3d, 0xa9, 0x88, 0x45, 0x3b,
  0x42, 0xf7, 0x29, 0x3f, 0xb8, 0x17, 0xab, 0x3f, 0xcd, 0xc0, 0xa8, 0x3d,
  0x75, 0x11, 0x6c, 0x3f, 0xda, 0xa1, 0xd2, 0x3e, 0x5b, 0x76, 0x0b, 0x3f,
  0xfb, 0x76, 0x24, 0xbf, 0xc1, 0x99, 0x2c, 0xbd, 0x57, 0x2b, 0x25, 0x3d,
  0xe4, 0x33, 0xc4, 0x3e, 0xa2, 0x6b, 0xfc, 0xbe, 0xb4, 0x36, 0x56, 0xbe,
  0x1b, 0x5b, 0x0c, 0xbf, 0x2a, 0xf0, 0x3c, 0x3f, 0x39, 0xbe, 0x42, 0xbd,
  0x2d, 0x4e, 0x2e, 0xbe, 0x1d, 0x56, 0x1a, 0x3f, 0x42, 0x38, 0x62, 0x3f,
  0x12, 0xe2, 0x5b, 0xbd, 0xfc, 0xcc, 0x12, 0x3e, 0xff, 0xfc, 0x14, 0x3e,
  0x8f, 0x1c, 0x68, 0xbe, 0x63, 0x48, 0x03, 0x3e, 0xb1, 0x29, 0x1c, 0x3f,
  0x50, 0xf3, 0xab, 0x3e, 0x63, 0x5d, 0xdc, 0x3e, 0x64, 0xef, 0x09, 0xbf,
  0x1b, 0x75, 0xb0, 0x3e, 0x44, 0x99, 0x3a, 0xbf, 0x0b, 0x12, 0x1e, 0x3f,
  0xdc, 0x5d, 0x26, 0xbf, 0x58, 0x25, 0x00, 0xbe, 0xf4, 0xe5, 0x35, 0xbf,
  0x04, 0xfb, 0x9f, 0xbe, 0xfe, 0x9d, 0x0f, 0x3f, 0x2d, 0xeb, 0x00, 0x3e,
  0xf2, 0x43, 0x75, 0xbe, 0x54, 0x73, 0xd3, 0x3e, 0x49, 0x7c, 0x82, 0xbd,
  0x52, 0xc4, 0x79, 0x3d, 0xf1, 0xa2, 0x42, 0x3f, 0xf7, 0x29, 0x05, 0x3f,
  0x37, 0x21, 0xfe, 0x3e, 0xdd, 0x3a, 0xdb, 0xbe, 0xf5, 0x9e, 0x02, 0x3f,
  0x96, 0x9f, 0x24, 0x3e, 0xbb, 0x5e, 0x1e, 0x3c, 0x4f, 0xc5, 0xcb, 0x3f,
  0xff, 0x2d, 0x78, 0xbd, 0x1c, 0xaf, 0xc0, 0x3f, 0xf7, 0x7c, 0x5a, 0x3f,
  0xcb, 0x39, 0xf6, 0x3e, 0x43, 0x23, 0x0f, 0x3e, 0x1b, 0x9b, 0x18, 0xbf,
  0xc6, 0xd5, 0x50, 0x3f, 0xc0, 0x19, 0x3f, 0x3e, 0xee, 0xba, 0xc3, 0xbd,
  0x3b, 0x11, 0xe3, 0x3e, 0x90, 0x98, 0xad, 0xbd, 0xc6, 0xa4, 0xd8, 0x3e,
  0xc6, 0x31, 0xb5, 0x3e, 0xb6, 0x40, 0x60, 0x3d, 0xfb, 0x24, 0x8e, 0xbb,
  0x38, 0xb8, 0x6b, 0xbf, 0x60, 0xfa, 0xcd, 0xbc, 0xd1, 0xd5, 0x16, 0x3f,
  0x20, 0xb9, 0x2c, 0xbf, 0xcd, 0xe5, 0x9c, 0x3e, 0xa7, 0x1e, 0x23, 0xbf,
  0x6b, 0x00, 0x8a, 0x3e, 0x35, 0xcb, 0x5d, 0x3e, 0x21, 0x6a, 0x50, 0x3f,
  0x4d, 0xf1, 0x19, 0xbf, 0xb0, 0x32, 0xd4, 0x3d, 0xbb, 0x98, 0x4c, 0xbf,
  0x17, 0x79, 0xe1, 0xbe, 0xc6, 0xbd, 0x36, 0xbd, 0xcd, 0xc7, 0x28, 0xbf,
  0x8f, 0xf8, 0x33, 0x3f, 0x3c, 0x9c, 0xe2, 0x3e, 0x9f, 0x7d, 0xa3, 0xbe,
  0x16, 0xe9, 0x9e, 0x3e, 0xcb, 0xae, 0xb0, 0x3d, 0x2f, 0x49, 0x5a, 0xbd,
  0x25, 0x98, 0x4c, 0xbc, 0xef, 0x8d, 0x89, 0x3e, 0xd1, 0xaa, 0x57, 0x3e,
  0xab, 0x3e, 0xc5, 0xbf, 0xb1, 0x2b, 0xe3, 0x3e, 0xce, 0xef, 0x8c, 0xbe,
  0xce, 0xd5, 0x3c, 0x3c, 0x2c, 0x17, 0xad, 0xbe, 0x4e, 0x84, 0x9e, 0xbd,
  0xd0, 0xfe, 0x03, 0x3e, 0xcf, 0x56, 0x22, 0xbf, 0x94, 0x8d, 0xab, 0x3e,
  0xa7, 0xb0, 0xab, 0x3e, 0x6d, 0xde, 0xa6, 0xbe, 0x5e, 0xb7, 0xd0, 0xbb,
  0xb0, 0x98, 0x29, 0x3d, 0x3d, 0x6d, 0xea, 0xbe, 0x86, 0xa5, 0x97, 0xbd,
  0xaf, 0x57, 0xe7, 0xbe, 0xfc, 0x03, 0x95, 0xbf, 0x01, 0x19, 0x08, 0xbf,
  0xc2, 0xee, 0xdd, 0x3d, 0xa7, 0x1b, 0xb6, 0xbf, 0x79, 0xff, 0xc1, 0xbf,
  0xb0, 0x68, 0x85, 0xbf, 0x98, 0xbd, 0x40, 0xbe, 0xcd, 0xa9, 0x2a, 0xbe,
  0x0e, 0x1e, 0xe5, 0x3e, 0x47, 0xb0, 0x60, 0xbf, 0x95, 0x04, 0xfa, 0x3e,
  0x49, 0x95, 0xe2, 0xbf, 0x84, 0x61, 0xf3, 0xbe, 0x1b, 0x27, 0x07, 0x3f,
  0xa9, 0x26, 0xa9, 0xb9, 0x66, 0x42, 0x3e, 0xbe, 0xc8, 0x5d, 0x5b, 0x3f,
  0x7a, 0x38, 0x86, 0x3e, 0x9d, 0x3c, 0x72, 0x3f, 0x4e, 0x49, 0x8c, 0xbf,
  0xb3, 0xfa, 0x5a, 0x3f, 0xd6, 0x94, 0xcd, 0xbe, 0x2d, 0x17, 0x75, 0x3f,
  0x90, 0x8c, 0x6a, 0x3e, 0xcf, 0x45, 0xcf, 0x3e, 0x7d, 0xd9, 0x7b, 0xbc,
  0x5f, 0x6d, 0xc9, 0x3d, 0xf0, 0x95, 0x5c, 0xbf, 0x5c, 0xff, 0x95, 0x3d,
  0xb7, 0xad, 0x40, 0x3f, 0x4a, 0xba, 0xb0, 0x3d, 0x53, 0xd1, 0x0c, 0x3e,
  0xb5, 0xf3, 0x82, 0xbe, 0x9e, 0x25, 0x24, 0x3e, 0x4c, 0x0c, 0x85, 0xbf,
  0xdc, 0xf3, 0xde, 0xbf, 0x6a, 0x61, 0xd5, 0xbe, 0x7a, 0x1a, 0x97, 0xbc,
  0x70, 0x14, 0xbe, 0x3d, 0x65, 0x76, 0xcb, 0xbe, 0xd5, 0x9b, 0x8c, 0xbf,
  0xdf, 0xea, 0xac, 0xbe, 0x0b, 0x26, 0x8b, 0x3e, 0x71, 0xdb, 0x7d, 0x3f,
  0x4a, 0xc8, 0xbf, 0x3d, 0xe5, 0xf3, 0x21, 0xbf, 0x61, 0x4f, 0x2f, 0xbf,
  0xf1, 0xa6, 0x62, 0x3e, 0xf4, 0x4c, 0xe4, 0xbe, 0x95, 0x1c, 0x27, 0xbf,
  0xca, 0xca, 0xc4, 0x3d, 0xf3, 0x1b, 0x25, 0xbf, 0x4c, 0xe0, 0xff, 0xbd,
  0x57, 0x37, 0x62, 0xbd, 0xc4, 0xb1, 0x31, 0x3f, 0x9f, 0x94, 0x91, 0xbd,
  0x00, 0x00, 0xbb, 0x3e, 0x84, 0xc4, 0x6b, 0x3f, 0x7f, 0x99, 0x95, 0x3f,
  0x94, 0x5c, 0xc0, 0x3c, 0xa2, 0xd6, 0x1c, 0xbe, 0x13, 0xd5, 0x59, 0x3f,
  0x3e, 0x92, 0x45, 0xbe, 0x1a, 0x6c, 0x36, 0xbe, 0xd4, 0xd9, 0xa5, 0x3f,
  0xcf, 0xb7, 0xf3, 0x3d, 0x58, 0xb2, 0xaa, 0x3f, 0x8c, 0x16, 0xca, 0x3d,
  0x9f, 0x7a, 0xcf, 0x3e, 0xc9, 0xd9, 0x43, 0xbf, 0x78, 0x00, 0xe3, 0x3e,
  0x51, 0xf6, 0x05, 0x3f, 0x58, 0xb3, 0x9d, 0x3e, 0x8f, 0xf7, 0x81, 0x3e,
  0xb3, 0x2d, 0x65, 0x3e, 0x57, 0x68, 0x23, 0xbd, 0x5e, 0x53, 0x6b, 0xbc,
  0x37, 0xae, 0x56, 0x3f, 0x98, 0x65, 0x49, 0xbe, 0xfc, 0x9e, 0x5b, 0x3e,
  0xbe, 0x72, 0x0b, 0xbe, 0xfd, 0xa2, 0x03, 0x3e, 0xdd, 0x22, 0x91, 0x3e,
  0x98, 0xfd, 0xee, 0xbd, 0xf7, 0x31, 0x58, 0xbe, 0xd0, 0x9b, 0x06, 0xbf,
  0x31, 0xe7, 0x9f, 0x3e, 0xdc, 0x15, 0x36, 0xbf, 0x7b, 0xba, 0xa6, 0x3e,
  0x03, 0x09, 0x82, 0xbe, 0xd1, 0x40, 0x93, 0x3f, 0x8b, 0xb7, 0x29, 0x3f,
  0xfd, 0xb9, 0x79, 0x3e, 0x08, 0xf1, 0x8a, 0xbe, 0x05, 0x05, 0x21, 0xbf,
  0x62, 0x74, 0xd1, 0x3e, 0x9d, 0xf7, 0x8c, 0xbc, 0xc0, 0xb8, 0x19, 0xbf,
  0xe7, 0x6d, 0x51, 0xbe, 0xff, 0xf9, 0xf7, 0x3c, 0x77, 0xf1, 0x2e, 0x3e,
  0x5f, 0xfc, 0xe2, 0x3d, 0xcb, 0xe2, 0xfd, 0xbe, 0xb8, 0x75, 0x98, 0xbe,
  0xa3, 0x82, 0xaf, 0xbd, 0x32, 0xd4, 0xfa, 0xbe, 0xef, 0x34, 0xd5, 0x3d,
  0x6f, 0xa9, 0x0c, 0x3f, 0xe3, 0x29, 0x88, 0x3e, 0x04, 0x8b, 0xb3, 0x3a,
  0x20, 0x1e, 0x03, 0x3e, 0xa2, 0xd5, 0x36, 0x3f, 0x09, 0xa6, 0x85, 0xbd,
  0xe1, 0x57, 0xb9, 0xbc, 0x6e, 0x38, 0xf1, 0x3d, 0x34, 0x04, 0x1e, 0x3f,
  0x75, 0xba, 0x1e, 0xbf, 0x47, 0x30, 0x14, 0x3e, 0x55, 0x0e, 0x65, 0xbe,
  0xcc, 0xb0, 0xd1, 0xbc, 0x71, 0x91, 0x7b, 0x3e, 0x42, 0x0c, 0x05, 0xbf,
  0xfb, 0x41, 0x9b, 0x3d, 0xa8, 0x57, 0x46, 0x3e, 0x60, 0x58, 0x5b, 0x3e,
  0xfb, 0x0b, 0x37, 0x3f, 0x43, 0xd2, 0xaa, 0xbe, 0xaf, 0x63, 0x69, 0x3e,
  0x7a, 0x45, 0xde, 0xbd, 0xfe, 0x12, 0x80, 0xbe, 0x3c, 0x35, 0x5a, 0xbd,
  0x04, 0x70, 0x94, 0xbe, 0xdb, 0x07, 0x83, 0xbe, 0x17, 0x5f, 0xc9, 0xbe,
  0x27, 0xc4, 0x16, 0x3e, 0x39, 0x14, 0x47, 0xbc, 0x3f, 0xfb, 0x0c, 0x3f,
  0x87, 0x50, 0x3f, 0xbf, 0x84, 0xba, 0x89, 0x3f, 0x5b, 0x88, 0xa2, 0x3e,
  0x29, 0x5b, 0x36, 0x3e, 0xc3, 0xb4, 0xfc, 0x3d, 0x82, 0x5c, 0x7a, 0xbf,
  0x67, 0xa0, 0xc4, 0x3e, 0xef, 0x28, 0x91, 0x3e, 0x2a, 0x95, 0x11, 0xbf,
  0xeb, 0xc8, 0xb8, 0x3e, 0xc8, 0xe1, 0x00, 0x3f, 0x48, 0x56, 0xa7, 0x3e,
  0xcb, 0xf8, 0x51, 0xbe, 0xee, 0x17, 0x1a, 0xbf, 0x88, 0xfc, 0x16, 0xbe,
  0x83, 0xa9, 0xf7, 0xbd, 0xf0, 0xe3, 0x75, 0xbe, 0x05, 0x84, 0xca, 0x3e,
  0xa9, 0x49, 0x80, 0xbe, 0x88, 0x09, 0x9d, 0x3e, 0x68, 0xfa, 0x59, 0xbd,
  0xb2, 0x86, 0x26, 0xbe, 0xec, 0x71, 0x37, 0x3f, 0xc1, 0xc3, 0x77, 0xbe,
  0xbd, 0x5e, 0xdb, 0xbe, 0xa7, 0xf8, 0x00, 0xbf, 0x36, 0xed, 0x67, 0x3e,
  0x6f, 0xd0, 0x28, 0xbe, 0xc6, 0x09, 0xd6, 0x3e, 0xe3, 0x8a, 0x5f, 0xbf,
  0xa0, 0xfd, 0x77, 0x3e, 0x9f, 0x9e, 0xbc, 0x3d, 0xc1, 0x61, 0x03, 0xbf,
  0x39, 0xc4, 0x7b, 0x3e, 0x62, 0xe6, 0x2f, 0x3e, 0x35, 0x11, 0x37, 0x3f,
  0x57, 0x2a, 0xd6, 0x3e, 0x91, 0xdb, 0xb3, 0xbd, 0x9e, 0xf0, 0xf5, 0x3d,
  0xb2, 0x0a, 0x9c, 0x3e, 0xe4, 0x11, 0x62, 0xbe, 0xc2, 0x71, 0x0f, 0x3f,
  0x43, 0xa1, 0x21, 0xbe, 0x70, 0x73, 0x43, 0xbe, 0x26, 0x06, 0x84, 0xbf,
  0x4f, 0xaa, 0x98, 0xbd, 0xbd, 0xc5, 0x8d, 0xbe, 0x69, 0x3d, 0x51, 0x3f,
  0x41, 0xe1, 0x2f, 0xbf, 0x4c, 0x9e, 0x52, 0x3e, 0xe1, 0x5a, 0x33, 0xbf,
  0xf0, 0xa2, 0x17, 0xbf, 0x40, 0xc8, 0xfa, 0xbc, 0xcc, 0xa1, 0xa0, 0xbf,
  0x29, 0x75, 0x99, 0x3f, 0x80, 0x3d, 0x35, 0x3d, 0xad, 0x1c, 0xf6, 0xbd,
  0xfb, 0x7b, 0x59, 0x3e, 0x3d, 0x50, 0x49, 0x3e, 0x99, 0xf4, 0xe9, 0xbd,
  0x1b, 0xc4, 0x4a, 0x3d, 0xc6, 0xf8, 0x0e, 0xbf, 0xbc, 0xf1, 0xf8, 0xba,
  0x4e, 0xaf, 0x50, 0x3b, 0x31, 0xf4, 0x0f, 0xbe, 0xa6, 0xfd, 0xc1, 0x3e,
  0x58, 0xee, 0x5e, 0x3d, 0x09, 0x36, 0x1a, 0xbe, 0x77, 0x1d, 0x02, 0xbe,
  0xeb, 0xec, 0x26, 0xbd, 0xb1, 0x27, 0xba, 0x3e, 0x95, 0x67, 0xc0, 0xbe,
  0xc0, 0x92, 0x0b, 0xbc, 0x6c, 0xce, 0x1f, 0x3e, 0x4e, 0x5e, 0x46, 0x3d,
  0x93, 0xe8, 0xe3, 0xbd, 0x6a, 0x83, 0xde, 0x3c, 0xaa, 0x51, 0x93, 0xbe,
  0x4e, 0x91, 0xd1, 0x3c, 0xd5, 0xe0, 0x5e, 0x3f, 0xbc, 0xee, 0xf3, 0x3e,
  0x12, 0xb8, 0x9b, 0xbc, 0x3e, 0x3d, 0xb6, 0x3e, 0xf6, 0x34, 0xf7, 0x3e,
  0xd8, 0x7a, 0x6a, 0x3f, 0xa0, 0xe0, 0x39, 0xbe, 0x3d, 0x6c, 0x5b, 0xbe,
  0x29, 0xea, 0x42, 0xbf, 0x8b, 0xb7, 0x15, 0xbe, 0xbe, 0x12, 0xc7, 0x3e,
  0xad, 0x8e, 0xd0, 0x3e, 0x77, 0x0d, 0xb3, 0x3e, 0x02, 0x81, 0xd4, 0x3d,
  0x04, 0x77, 0xf6, 0x3d, 0x5c, 0x4a, 0xe7, 0x3d, 0x18, 0x5a, 0x63, 0x3f,
  0xbf, 0xc3, 0x8b, 0xbe, 0xe1, 0x33, 0x1e, 0x3e, 0x44, 0x94, 0x11, 0x3f,
  0x6e, 0x5a, 0x5c, 0xbe, 0x14, 0x3e, 0xe7, 0x3d, 0x62, 0x57, 0x14, 0xbe,
  0xb4, 0x21, 0xaf, 0x3e, 0x5a, 0xdd, 0x06, 0xc0, 0xa0, 0x3f, 0x4e, 0x3e,
  0x12, 0x29, 0xd4, 0x3d, 0x58, 0xb7, 0xac, 0xbf, 0xfc, 0x66, 0xfa, 0xbe,
  0xd6, 0x6a, 0x38, 0xbf, 0x4d, 0xbe, 0x41, 0x3f, 0x0a, 0x96, 0x1c, 0xbe,
  0x30, 0x3a, 0x9a, 0x3d, 0x35, 0x73, 0xc3, 0xbf, 0xf3, 0xcc, 0xd8, 0x3f,
  0x8c, 0xd0, 0x1b, 0xc0, 0xf5, 0xb7, 0x15, 0xbf, 0x08, 0x32, 0x2c, 0xbf,
  0xc9, 0x8a, 0xaa, 0xbd, 0x8a, 0xdd, 0x03, 0xbf, 0x38, 0x66, 0x25, 0x3f,
  0x19, 0xfd, 0xc8, 0xbf, 0x86, 0xf2, 0x4b, 0xbe, 0x5e, 0xe3, 0xc1, 0xbf,
  0xe7, 0xe6, 0x91, 0x3e, 0x12, 0xe9, 0xd4, 0xbe, 0x02, 0x26, 0x42, 0xbf,
  0x9e, 0x54, 0x3e, 0x3f, 0xb5, 0x2c, 0x76, 0x3e, 0xd1, 0x51, 0x0a, 0xbf,
  0xa1, 0xc2, 0x54, 0xbd, 0xb0, 0x2b, 0xb2, 0xbe, 0x2f, 0xf5, 0x67, 0x3e,
  0x8e, 0x05, 0x49, 0x3e, 0x0f, 0x89, 0x5f, 0x3d, 0x2c, 0xdd, 0x81, 0x3e,
  0x31, 0x09, 0x91, 0xbf, 0x9e, 0x2e, 0x2e, 0x3f, 0x84, 0x28, 0x99, 0xbe,
  0xc4, 0xf6, 0x2b, 0x3e, 0xbf, 0x03, 0x4b, 0xbe, 0x28, 0x82, 0x47, 0x3f,
  0xa5, 0x55, 0xd1, 0xbc, 0x96, 0x14, 0x99, 0x3e, 0x30, 0xce, 0x61, 0xbf,
  0x85, 0x26, 0x38, 0xbe, 0x4c, 0x08, 0x58, 0xbf, 0xd3, 0x0e, 0x56, 0x3f,
  0xe6, 0xb4, 0x18, 0x3f, 0xc6, 0xe7, 0x99, 0xbf, 0x61, 0x00, 0x1a, 0x3e,
  0x46, 0x36, 0x4c, 0xbf, 0x7d, 0xf3, 0xc5, 0x3e, 0xa3, 0xa2, 0x31, 0xbe,
  0x00, 0xf8, 0x77, 0x3d, 0x41, 0xae, 0x9e, 0x3e, 0xa9, 0xc6, 0x13, 0x3e,
  0x8b, 0xe0, 0x06, 0x3f, 0xd7, 0x12, 0x75, 0xbd, 0x72, 0xa8, 0x50, 0xbe,
  0x2c, 0xa2, 0xc6, 0x3e, 0xcd, 0xd3, 0x4e, 0x3e, 0x0e, 0x41, 0x86, 0x3e,
  0xd6, 0xb2, 0x38, 0x3f, 0x69, 0xd9, 0x02, 0x3e, 0x2a, 0x92, 0x89, 0xbe,
  0xf6, 0x96, 0xc2, 0x3d, 0x0d, 0xa1, 0x07, 0x3e, 0xba, 0xad, 0xab, 0xbe,
  0x13, 0x83, 0xf4, 0xbd, 0x47, 0x90, 0x3c, 0xbe, 0x6c, 0xa7, 0xff, 0x3e,
  0xc0, 0xfc, 0x28, 0xbf, 0x47, 0x39, 0x3d, 0x3f, 0x60, 0x2e, 0xc8, 0xbe,
  0x6f, 0xde, 0x39, 0x3f, 0x57, 0xe4, 0x89, 0xbe, 0xca, 0xd3, 0x3e, 0xbf,
  0x83, 0xb1, 0x89, 0xbe, 0xd1, 0x12, 0x43, 0xbe, 0x28, 0x98, 0xfe, 0x3d,
  0x79, 0x79, 0x36, 0xbe, 0xc8, 0x78, 0xea, 0x3e, 0x60, 0xe1, 0x32, 0x3e,
  0x86, 0x02, 0x6d, 0xbd, 0x1a, 0xb0, 0xa3, 0x3f, 0xf0, 0x40, 0x18, 0x3f,
  0xe5, 0x4c, 0x94, 0xbe, 0x50, 0xca, 0xa2, 0xbe, 0x63, 0x66, 0x3d, 0x3e,
  0x2e, 0x85, 0xbb, 0xbc, 0x81, 0xef, 0xe8, 0x3c, 0xc2, 0x3c, 0x98, 0x3f,
  0x71, 0x7a, 0x8e, 0x3e, 0xe5, 0xa0, 0xac, 0x3f, 0x83, 0x46, 0x9b, 0x3e,
  0x11, 0xab, 0x49, 0x3f, 0x00, 0x69, 0x55, 0xbf, 0x4e, 0x65, 0xc6, 0xbe,
  0xe2, 0x18, 0x7d, 0x3d, 0x9d, 0x82, 0xac, 0xbf, 0xe0, 0xb2, 0x4f, 0xbf,
  0xe8, 0x6d, 0xb9, 0xbb, 0x5a, 0x61, 0x03, 0xbf, 0xc7, 0x76, 0x13, 0xbe,
  0x08, 0xba, 0x54, 0xbf, 0xcd, 0x2e, 0x0c, 0x3f, 0xc1, 0x78, 0x99, 0xbe,
  0xd0, 0x3f, 0xdf, 0xbc, 0xce, 0x7c, 0x07, 0xbf, 0x3e, 0xa6, 0xab, 0x3d,
  0x0b, 0x15, 0x9d, 0xbf, 0xf5, 0x03, 0x76, 0x3d, 0x6c, 0x7c, 0x84, 0xbf,
  0xbe, 0xf9, 0x38, 0xbe, 0xc5, 0xa4, 0x73, 0xbf, 0xc7, 0x68, 0x2b, 0x3f,
  0xd1, 0xe8, 0x75, 0xbf, 0x6a, 0x3b, 0x24, 0xbf, 0xf1, 0x8d, 0xf2, 0xbf,
  0xd4, 0xc5, 0xbf, 0x3e, 0xd5, 0x42, 0xf4, 0xbd, 0x30, 0x20, 0x9e, 0x3c,
  0x4d, 0xe2, 0x0f, 0x3f, 0x81, 0xc0, 0xaa, 0x3b, 0x1b, 0xe5, 0x09, 0x3f,
  0x17, 0xdd, 0x3e, 0x3e, 0x3d, 0xa9, 0x36, 0x3d, 0x51, 0x20, 0x2f, 0xbf,
  0x49, 0x96, 0xda, 0xbc, 0x23, 0x28, 0xb1, 0x3e, 0xc2, 0x64, 0x06, 0x3e,
  0x26, 0xee, 0x4a, 0xbf, 0xc7, 0x2e, 0xf1, 0xbe, 0xef, 0xad, 0x95, 0xbf,
  0x73, 0x14, 0xe6, 0x3e, 0xe5, 0x26, 0x82, 0x3f, 0xfe, 0x67, 0x74, 0x3d,
  0xbd, 0xdf, 0x25, 0x3e, 0x07, 0x05, 0x85, 0xbe, 0xb0, 0x3e, 0xab, 0xbd,
  0x7c, 0x73, 0xf7, 0x3e, 0xd9, 0xc9, 0xef, 0x3e, 0x00, 0x51, 0x21, 0x3e,
  0x1d, 0x7d, 0x71, 0x3f, 0x9d, 0xc6, 0x92, 0x3e, 0x49, 0xb2, 0x11, 0x3f,
  0xc2, 0xc7, 0x1d, 0xbf, 0x83, 0x71, 0x49, 0x3d, 0x7e, 0x58, 0x9b, 0x3f,
  0xd7, 0xb1, 0x24, 0x3f, 0x74, 0xc8, 0x92, 0xbe, 0xa6, 0xe0, 0x5a, 0x3d,
  0xe6, 0x42, 0xd1, 0x3e, 0xad, 0x8b, 0x6a, 0x3e, 0x2b, 0xc9, 0xb2, 0x3d,
  0x9f, 0xad, 0x8f, 0x3d, 0xd6, 0x39, 0x77, 0xbe, 0x56, 0x5f, 0xbd, 0x3e,
  0x47, 0x4f, 0x9f, 0x3d, 0x43, 0x92, 0x59, 0x3e, 0xa8, 0xe9, 0x1a, 0xbf,
  0xcc, 0x75, 0xf6, 0xbd, 0xe6, 0xd8, 0xdb, 0xbe, 0x62, 0x45, 0x1d, 0xbf,
  0x19, 0xde, 0x5a, 0x3f, 0x58, 0xca, 0x2c, 0xbf, 0x9b, 0xe0, 0x88, 0x3e,
  0xc1, 0xa4, 0x68, 0x3e, 0x14, 0xe1, 0xf5, 0x3e, 0x9b, 0x64, 0xfe, 0x3d,
  0x24, 0x1a, 0x58, 0xbd, 0xd9, 0x66, 0x80, 0x3e, 0xf8, 0x71, 0x09, 0xbf,
  0xdd, 0x71, 0xc3, 0x3d, 0x13, 0xcc, 0x0d, 0x3f, 0x4b, 0xcc, 0xe9, 0xbb,
  0xd6, 0x4a, 0x4d, 0x3f, 0x24, 0xb7, 0x55, 0xbe, 0x9c, 0x60, 0x15, 0x3e,
  0xbc, 0xa8, 0x13, 0xbf, 0x5d, 0x59, 0xaf, 0xbe, 0x27, 0xd6, 0xa2, 0x3e,
  0x66, 0x80, 0x4f, 0x3e, 0xc0, 0x8d, 0x53, 0x3d, 0x17, 0x16, 0x86, 0xbe,
  0xd0, 0x52, 0xd0, 0x3d, 0x1a, 0xe0, 0xad, 0xbb, 0xca, 0x8e, 0x41, 0x3f,
  0x05, 0x7c, 0x9e, 0xbd, 0x41, 0x21, 0xb8, 0x3e, 0x63, 0x9e, 0x6f, 0x3e,
  0x67, 0xff, 0xe8, 0xbe, 0x34, 0xae, 0xbe, 0x3e, 0x82, 0xfd, 0x1f, 0xbf,
  0xa8, 0x1b, 0x50, 0x3f, 0xa7, 0x6e, 0x75, 0xbe, 0x4c, 0x1a, 0xe4, 0xbd,
  0x33, 0x47, 0xa2, 0x3e, 0x58, 0xc3, 0x62, 0xbf, 0x5a, 0xa9, 0xa2, 0xbe,
  0x51, 0xf3, 0xd7, 0xbe, 0xa1, 0x5d, 0x88, 0x3e, 0x84, 0x8f, 0xb2, 0xbe,
  0x7e, 0xcf, 0x53, 0xbe, 0xd7, 0x07, 0x0f, 0x3f, 0x7e, 0xb0, 0x94, 0x3e,
  0x69, 0x79, 0x34, 0x3b, 0xe5, 0x98, 0xbe, 0x3d, 0x07, 0x5e, 0x78, 0xbe,
  0xc4, 0x04, 0x23, 0xbe, 0x02, 0x29, 0x14, 0xbf, 0x98, 0xcc, 0x01, 0x40,
  0x06, 0x97, 0x5e, 0xbe, 0xfa, 0xe3, 0xb5, 0x3f, 0x18, 0xb9, 0x37, 0x3e,
  0xf5, 0x0b, 0x11, 0x3f, 0xe9, 0x40, 0x83, 0xbf, 0x1d, 0x77, 0xc8, 0xbe,
  0x8a, 0xaa, 0xb8, 0x3e, 0x39, 0xdc, 0xab, 0xbf, 0x5b, 0xc1, 0x0e, 0xbf,
  0x3d, 0xad, 0x38, 0x3d, 0x0a, 0x05, 0x6a, 0xbf, 0x12, 0xdd, 0x3a, 0xbf,
  0xda, 0xd0, 0x0a, 0xbe, 0x99, 0x22, 0x50, 0x3e, 0xf6, 0x7f, 0x7f, 0xbe,
  0x2a, 0x1d, 0xbd, 0xbe, 0xe9, 0xa6, 0x8c, 0x3f, 0x27, 0xba, 0x2d, 0xbf,
  0xd8, 0xbd, 0x20, 0xbf, 0xa4, 0x15, 0xbb, 0x3e, 0x75, 0xc7, 0x23, 0x3e,
  0x44, 0x9d, 0x06, 0x3e, 0x2a, 0xf7, 0xb6, 0x3e, 0x60, 0x0d, 0xbc, 0x3f,
  0x7e, 0xfe, 0x1f, 0x3e, 0x38, 0xd9, 0xf1, 0x3f, 0x3e, 0x28, 0xc9, 0x3f,
  0x6b, 0x0d, 0x78, 0x3f, 0x06, 0xbb, 0x1e, 0xbf, 0x33, 0x73, 0xa7, 0x3e,
  0xd5, 0x1a, 0x0b, 0xbf, 0x58, 0xfd, 0xbe, 0x3e, 0xcb, 0x35, 0xcf, 0xbe,
  0x89, 0x13, 0x9d, 0x3d, 0x9e, 0x25, 0xef, 0x3d, 0x8b, 0xf7, 0x97, 0x3e,
  0xa7, 0x10, 0x57, 0xbd, 0xbd, 0xd1, 0xc3, 0x3e, 0x97, 0xe3, 0xbe, 0x3c,
  0xb2, 0x9f, 0xa1, 0xbf, 0x1b, 0x18, 0xc6, 0xbd, 0x2b, 0x3a, 0x9d, 0xbe,
  0xd3, 0x36, 0xa9, 0x3e, 0xc2, 0x02, 0xb7, 0x3e, 0xf0, 0x91, 0x31, 0xbc,
  0xd3, 0xa2, 0x18, 0xbe, 0xcd, 0x0a, 0x23, 0x3f, 0xa5, 0xc6, 0x57, 0xbd,
  0xb9, 0x57, 0x00, 0x3f, 0xc5, 0x71, 0x6c, 0x3e, 0xb0, 0x17, 0x5a, 0x3e,
  0xc5, 0x19, 0xba, 0x3e, 0xbf, 0xe3, 0xf9, 0xbe, 0x3f, 0x9f, 0x90, 0x3c,
  0x57, 0x2b, 0x72, 0xbf, 0x45, 0xb4, 0x1c, 0xbf, 0x11, 0x7e, 0x06, 0xbf,
  0xc5, 0xe3, 0x51, 0x3b, 0xc6, 0x04, 0x75, 0xbe, 0xc0, 0xc8, 0x53, 0xbf,
  0x68, 0xe5, 0x96, 0x3e, 0x66, 0x14, 0x84, 0x3e, 0x67, 0xd7, 0x03, 0x3e,
  0x6f, 0x60, 0x15, 0xbf, 0x8a, 0x21, 0x06, 0x3f, 0x69, 0x2b, 0x2c, 0xbe,
  0x9e, 0x17, 0x54, 0x3e, 0x65, 0x19, 0x5e, 0xbd, 0xd5, 0x1b, 0x8b, 0x3f,
  0xcf, 0xbe, 0x38, 0x3e, 0xa7, 0x01, 0x38, 0x3d, 0x95, 0x3d, 0x67, 0xbe,
  0x25, 0x63, 0x5f, 0x3f, 0x97, 0x9c, 0x8f, 0x3f, 0xb4, 0x96, 0x56, 0x3f,
  0x08, 0xc9, 0x64, 0x3f, 0x97, 0xee, 0x3e, 0xbf, 0xb0, 0x5b, 0x49, 0x3f,
  0x9d, 0xe1, 0x77, 0xbf, 0x36, 0x60, 0xcd, 0xbe, 0xf5, 0xd3, 0xf1, 0x3e,
  0xdd, 0x0c, 0x1b, 0x3d, 0xfb, 0xf8, 0x25, 0xbf, 0x35, 0xb8, 0xce, 0xbf,
  0x03, 0x44, 0xda, 0xbe, 0xf7, 0x3a, 0x0d, 0x3f, 0x58, 0xb9, 0xd9, 0x3d,
  0x41, 0x03, 0x3c, 0xbe, 0x86, 0xe1, 0x5d, 0xbf, 0xf1, 0xe3, 0x1e, 0xbe,
  0x9a, 0x0f, 0x50, 0xbf, 0xf9, 0x1e, 0x25, 0x3f, 0x64, 0x72, 0x6d, 0x3e,
  0xd2, 0x0a, 0x0c, 0x3e, 0x27, 0x91, 0xe9, 0xbe, 0x60, 0x24, 0x6e, 0x3f,
  0xa7, 0x8f, 0x2c, 0xbe, 0xe1, 0xb7, 0xd7, 0x3e, 0x4f, 0xe6, 0x28, 0xbd,
  0xb4, 0x08, 0x0e, 0x3f, 0x79, 0x92, 0x14, 0x3e, 0x1f, 0x3d, 0x7e, 0x3e,
  0xf0, 0x56, 0xc0, 0x3e, 0xf4, 0x5a, 0x26, 0xbe, 0x93, 0xdb, 0x1d, 0xbf,
  0xdc, 0xcd, 0x59, 0x3d, 0xd9, 0xeb, 0xff, 0xbe, 0x22, 0xf7, 0x01, 0x3f,
  0xb1, 0x59, 0x04, 0xbf, 0x33, 0xd0, 0x17, 0x3d, 0xd1, 0xae, 0xe1, 0xbc,
  0x2d, 0xe0, 0xee, 0xbe, 0x3c, 0x47, 0x3a, 0x3f, 0xb1, 0x05, 0x15, 0x3f,
  0xfd, 0x00, 0xa9, 0xbc, 0x0c, 0x65, 0x91, 0xbd, 0x8c, 0x33, 0xe0, 0xbe,
  0x3b, 0xde, 0x49, 0xbd, 0x96, 0x80, 0xa4, 0xbd, 0xe0, 0x15, 0x01, 0x40,
  0xfd, 0xeb, 0x77, 0x3b, 0xe0, 0xfd, 0xa6, 0x3e, 0x8f, 0xcc, 0x84, 0x3e,
  0x70, 0x3b, 0xf7, 0x3e, 0x79, 0xd8, 0xa1, 0xbf, 0x12, 0xf1, 0x19, 0xbd,
  0xd6, 0x96, 0x8f, 0xbd, 0x7c, 0x32, 0x8f, 0x3d, 0xbb, 0x99, 0x8a, 0xbe,
  0xe9, 0x60, 0x0d, 0xbd, 0x2d, 0xc3, 0x36, 0x3f, 0x48, 0xdf, 0x91, 0x3e,
  0xf0, 0x9b, 0x15, 0x3f, 0xad, 0x77, 0xb2, 0x3e, 0x89, 0x35, 0x73, 0xbe,
  0xec, 0x27, 0x18, 0xbe, 0xbb, 0xe0, 0x4d, 0x3e, 0xa0, 0xbb, 0x2d, 0x3f,
  0x5e, 0xec, 0xf8, 0x3e, 0x07, 0x77, 0x62, 0xbe, 0x81, 0xd7, 0x21, 0x3f,
  0xca, 0x0f, 0x0e, 0x3e, 0x59, 0x72, 0x62, 0x3f, 0x9b, 0x5e, 0x07, 0x3e,
  0x62, 0x6f, 0x48, 0xbe, 0xa7, 0xc7, 0x05, 0x3e, 0x74, 0xa1, 0x97, 0x3f,
  0x9e, 0x51, 0xda, 0xbd, 0xde, 0x78, 0x1e, 0x3f, 0xff, 0x58, 0x5f, 0xbf,
  0x08, 0x34, 0xfa, 0x3e, 0x1d, 0xe7, 0x71, 0x3e, 0x27, 0x20, 0xe3, 0x3e,
  0x2f, 0xdc, 0xe8, 0x3d, 0x73, 0xad, 0x04, 0x3e, 0x16, 0xf7, 0x1b, 0x3e,
  0xfe, 0xfe, 0xea, 0xbe, 0x4c, 0xfa, 0x9f, 0x3e, 0x98, 0xeb, 0xab, 0x3d,
  0x0b, 0x97, 0xbf, 0xbd, 0xcc, 0xb3, 0xa4, 0x3e, 0x24, 0x88, 0x1b, 0xc0,
  0xc9, 0x73, 0xdb, 0x3e, 0x52, 0xc0, 0xba, 0x3e, 0x14, 0xfe, 0x39, 0x3f,
  0xf9, 0x45, 0x53, 0xbe, 0x68, 0x27, 0x63, 0xbc, 0x4e, 0x1e, 0x94, 0xbf,
  0x9f, 0x33, 0xa0, 0x3d, 0x0e, 0xdb, 0x09, 0xbf, 0xd9, 0xa0, 0xe0, 0xbe,
  0x85, 0xf6, 0xaa, 0x3e, 0x64, 0xee, 0x4e, 0xbe, 0xc3, 0x26, 0xfa, 0xbd,
  0x14, 0xec, 0x44, 0xbd, 0xb5, 0x8a, 0x6f, 0x3d, 0xdb, 0xf1, 0xa3, 0x3c,
  0x09, 0xa3, 0xc6, 0xbc, 0x81, 0x13, 0x0e, 0xbf, 0xd6, 0x91, 0xff, 0xbd,
  0x3a, 0xa4, 0x39, 0x3f, 0x33, 0xd2, 0x21, 0xbe, 0x7c, 0x3a, 0x73, 0x3e,
  0xf0, 0xda, 0x8d, 0xbe, 0x22, 0x26, 0x6e, 0x3e, 0xe9, 0x07, 0xf9, 0x3e,
  0x6e, 0xf7, 0x0c, 0xbf, 0x3d, 0x28, 0xf2, 0xbe, 0x71, 0x98, 0x8a, 0xbd,
  0x17, 0xa4, 0x82, 0xba, 0x50, 0x0e, 0xde, 0xbe, 0xb3, 0x76, 0x82, 0x3f,
  0xeb, 0xca, 0xa2, 0xbe, 0x0b, 0xca, 0x3d, 0x3f, 0x72, 0x29, 0x28, 0x3f,
  0x6d, 0x2f, 0x2d, 0x3f, 0x86, 0x07, 0xe2, 0xbe, 0xb0, 0x7a, 0xa7, 0xbe,
  0x4e, 0x56, 0x4b, 0x3f, 0x20, 0x1d, 0xac, 0xbf, 0x83, 0x33, 0x92, 0xbf,
  0x7c, 0x1a, 0x34, 0x3d, 0x39, 0x2e, 0x43, 0xbf, 0xc0, 0xd5, 0xd9, 0xbe,
  0x09, 0xf6, 0xff, 0xbe, 0x71, 0xb9, 0x9e, 0x3f, 0x86, 0x4b, 0x36, 0x3e,
  0xe6, 0xf3, 0x65, 0x3f, 0xe9, 0xfd, 0xec, 0x3e, 0x52, 0xa3, 0xe5, 0xbd,
  0xa9, 0x3b, 0x5e, 0xbf, 0x4c, 0x91, 0x92, 0xbf, 0x3e, 0x5a, 0x94, 0x3f,
  0xf8, 0xb5, 0x55, 0xbe, 0xcf, 0x59, 0x8e, 0xbe, 0x80, 0xdf, 0x1a, 0x3f,
  0x09, 0xa5, 0x18, 0x3f, 0x02, 0xbe, 0x4c, 0x3f, 0xee, 0x09, 0x11, 0xbe,
  0x7a, 0x04, 0x02, 0x3f, 0x3a, 0xb7, 0xa7, 0xbf, 0x71, 0xdc, 0x6a, 0x3e,
  0xf5, 0x99, 0x90, 0xbd, 0xc0, 0x46, 0x8e, 0xbe, 0x32, 0x24, 0x02, 0xbf,
  0x31, 0x6e, 0x89, 0x3d, 0xe2, 0x14, 0x63, 0xbe, 0xb9, 0xb1, 0xc5, 0xbd,
  0x67, 0x03, 0xa6, 0x3e, 0x3c, 0x82, 0x77, 0x3e, 0xd5, 0xac, 0x17, 0x3e,
  0x3b, 0x29, 0xaf, 0x3e, 0xe5, 0xfe, 0xb4, 0x3e, 0x96, 0xc9, 0x01, 0x3f,
  0x19, 0x62, 0x88, 0xbf, 0x4d, 0x40, 0xd7, 0x3e, 0xde, 0x49, 0x25, 0xbf,
  0x65, 0x1d, 0x6d, 0x3d, 0xbe, 0x9e, 0x41, 0xbf, 0x1d, 0x9a, 0x25, 0x3f,
  0x87, 0xe8, 0x2b, 0xbf, 0x1f, 0x50, 0x88, 0xbe, 0x8d, 0xc3, 0x33, 0xbf,
  0xdb, 0xab, 0x96, 0xbe, 0x73, 0xc3, 0xd4, 0xbf, 0xad, 0x63, 0x9c, 0xbf,
  0x6c, 0x25, 0x1a, 0x3f, 0x21, 0x21, 0xc8, 0x3e, 0xf7, 0x6d, 0x71, 0xbf,
  0x53, 0x92, 0x63, 0xbe, 0x0a, 0x6f, 0xd3, 0xbe, 0x91, 0xa7, 0x97, 0x3e,
  0x54, 0xc1, 0x8e, 0x3e, 0xf9, 0x2b, 0x76, 0xbd, 0xd0, 0x01, 0xf0, 0xbd,
  0xf0, 0x10, 0x98, 0xbf, 0xd6, 0x23, 0xae, 0x3e, 0x12, 0x61, 0x43, 0x3d,
  0xa0, 0xc5, 0xa4, 0x3e, 0x85, 0x1b, 0x69, 0xbc, 0x56, 0x88, 0xf3, 0x3e,
  0x78, 0x68, 0xc8, 0x3d, 0x96, 0xff, 0x15, 0x3f, 0xcd, 0x07, 0xf3, 0xbe,
  0xef, 0x84, 0xe6, 0x3e, 0x1f, 0x98, 0x38, 0xbf, 0x0b, 0xdc, 0x15, 0x3f,
  0x7a, 0x63, 0x00, 0x3e, 0x3b, 0xf9, 0x56, 0xbf, 0xa9, 0x79, 0x17, 0x3b,
  0xa0, 0xfd, 0xa6, 0xbe, 0xaa, 0xb3, 0x72, 0x3e, 0x2c, 0x79, 0x27, 0xbe,
  0x8c, 0x67, 0x09, 0xbf, 0x38, 0x7b, 0x89, 0x3d, 0xf8, 0xcd, 0xdf, 0x3e,
  0x0c, 0x49, 0x67, 0x3f, 0x20, 0xa5, 0x1c, 0x3e, 0x9e, 0x97, 0xe0, 0xbd,
  0x3c, 0x65, 0xe2, 0xbe, 0xfd, 0x39, 0x24, 0xbe, 0xe2, 0xb1, 0x71, 0x3e,
  0xb8, 0x3b, 0x1d, 0x3d, 0x90, 0x6a, 0x04, 0xbf, 0xcc, 0x56, 0xe4, 0xba,
  0xab, 0x92, 0xab, 0x3e, 0x42, 0x0b, 0x64, 0xbe, 0xb3, 0xd7, 0x09, 0xbd,
  0xdf, 0x03, 0xad, 0xbe, 0x06, 0xfd, 0x94, 0x3e, 0x80, 0x78, 0x6b, 0x3f,
  0x2a, 0x9e, 0x99, 0x3e, 0x92, 0x93, 0x6f, 0xbe, 0xe5, 0xbe, 0xe5, 0xbe,
  0x76, 0xc9, 0x0a, 0x3f, 0xbd, 0xee, 0x09, 0xbe, 0x80, 0xc5, 0xaf, 0x3f,
  0xe1, 0x31, 0x95, 0xbe, 0x84, 0xcd, 0x72, 0xbf, 0x12, 0x60, 0x0a, 0xbe,
  0x51, 0x49, 0xf4, 0x3e, 0x23, 0x62, 0x82, 0x3f, 0x7d, 0x96, 0x01, 0xbe,
  0x99, 0x36, 0x80, 0xbf, 0x74, 0xff, 0x30, 0xbd, 0xbc, 0xef, 0x53, 0x3e,
  0x45, 0xc1, 0xb8, 0xbd, 0x65, 0x08, 0xd9, 0x3e, 0xb1, 0x2d, 0x52, 0x3f,
  0xd1, 0x74, 0x81, 0xbe, 0x12, 0xde, 0x76, 0x3d, 0x2f, 0xd8, 0xc7, 0x3e,
  0x9f, 0x7f, 0x49, 0x3f, 0xe9, 0x37, 0x43, 0xbf, 0xa9, 0x4c, 0x27, 0x3f,
  0x62, 0x8e, 0x5f, 0x3f, 0x21, 0x0c, 0x3e, 0xbd, 0x50, 0xc1, 0xa9, 0x3d,
  0x94, 0xc5, 0x36, 0xbf, 0x15, 0x46, 0x86, 0x3c, 0x5c, 0x6b, 0x93, 0x3d,
  0x15, 0xb5, 0xc0, 0x3c, 0xb9, 0xc5, 0xb1, 0x3e, 0x45, 0x3e, 0xb3, 0x3e,
  0xd7, 0xbe, 0x30, 0xbd, 0xc1, 0x9b, 0x20, 0xbe, 0xa5, 0x50, 0x8e, 0x3e,
  0x0c, 0xf5, 0xa8, 0xbd, 0xd1, 0xff, 0x1a, 0xbe, 0x51, 0x75, 0xac, 0x3e,
  0xfe, 0x34, 0x1d, 0x3f, 0xf6, 0xa8, 0xb2, 0x3d, 0x26, 0xf6, 0xff, 0x3e,
  0x70, 0x0b, 0xa9, 0xbd, 0x1b, 0x84, 0x9f, 0x3d, 0xa1, 0x5a, 0xd8, 0x3e,
  0x7f, 0x8d, 0xe4, 0x3d, 0xe1, 0x81, 0x25, 0x3f, 0x88, 0x33, 0x56, 0x3f,
  0x2d, 0xe1, 0x41, 0xbe, 0xee, 0xa3, 0x2d, 0x3f, 0x7e, 0x8a, 0x5a, 0xbf,
  0xce, 0x9b, 0x06, 0x3f, 0xe7, 0x81, 0xf6, 0x3d, 0x0d, 0xc6, 0x0d, 0x3f,
  0x82, 0xdd, 0xd2, 0x3d, 0x37, 0xe0, 0xf6, 0x3a, 0x1a, 0x81, 0x13, 0xbf,
  0x45, 0x48, 0xca, 0xbd, 0xad, 0xc4, 0x9c, 0x3e, 0x9c, 0x99, 0x08, 0x3c,
  0x5d, 0xa1, 0x84, 0xbe, 0xca, 0x51, 0xcf, 0xbd, 0x8b, 0xa6, 0xec, 0xbf,
  0x38, 0xee, 0x9e, 0x3e, 0x18, 0xbe, 0x13, 0x3f, 0x2c, 0xb9, 0x68, 0x3e,
  0x4a, 0xe7, 0x38, 0xbe, 0x01, 0xe3, 0x6c, 0xbe, 0x13, 0xc1, 0x9d, 0xbd,
  0xd3, 0xc9, 0x4a, 0x3f, 0x55, 0x3b, 0xdf, 0x3e, 0x8d, 0xfb, 0xd7, 0x3e,
  0xfa, 0x80, 0x2b, 0x3f, 0x68, 0x9d, 0xed, 0x3e, 0x88, 0xf2, 0xff, 0x3d,
  0xe8, 0xae, 0x0a, 0xbf, 0xda, 0x4e, 0xda, 0x3e, 0xcc, 0x89, 0xd1, 0xbd,
  0xd0, 0xfc, 0x5f, 0x3e, 0x90, 0x6e, 0x63, 0x3f, 0x19, 0x10, 0x54, 0x3e,
  0x14, 0xc0, 0xe6, 0x3e, 0xf3, 0xb5, 0x94, 0xbe, 0x40, 0x1b, 0xd2, 0xbd,
  0x80, 0xc7, 0x86, 0xbc, 0x57, 0xf4, 0x18, 0xbf, 0x33, 0xd9, 0x5f, 0x3f,
  0xae, 0x08, 0xf9, 0x3e, 0x41, 0x48, 0xc8, 0x3e, 0x00, 0x8c, 0x2a, 0xbe,
  0x60, 0xa7, 0xb4, 0xbc, 0x39, 0x9c, 0xd8, 0x3e, 0x94, 0x6b, 0x4b, 0xbe,
  0xd8, 0xf1, 0x5b, 0x3f, 0x6b, 0xba, 0x8e, 0x3e, 0x14, 0x86, 0x85, 0x3f,
  0xef, 0x1f, 0x7d, 0xbf, 0x34, 0x27, 0x19, 0x3f, 0xcb, 0x10, 0x67, 0x3e,
  0x92, 0x24, 0x45, 0x3f, 0x36, 0xca, 0x0b, 0x3f, 0xec, 0xf1, 0xfb, 0xbe,
  0xfe, 0x03, 0xaa, 0x3d, 0x12, 0x72, 0x8e, 0x3e, 0x5a, 0xde, 0x9d, 0x3e,
  0xc5, 0xcc, 0xaf, 0x3e, 0xc9, 0xe3, 0xc9, 0xbd, 0x9d, 0x92, 0x79, 0xbe,
  0x13, 0x78, 0xd9, 0xbf, 0x16, 0x52, 0x7a, 0x3e, 0x87, 0x47, 0x33, 0x3e,
  0xd0, 0x66, 0x5a, 0x3f, 0x93, 0xb1, 0xf7, 0x3d, 0x7c, 0x45, 0xaf, 0x3e,
  0xc5, 0x6f, 0x21, 0x3d, 0xb8, 0x41, 0xb1, 0x3e, 0x60, 0x74, 0x97, 0x3e,
  0x1f, 0xcb, 0xd3, 0x3e, 0x44, 0x08, 0xcb, 0xbd, 0x8b, 0x89, 0xa9, 0x3e,
  0x6b, 0x4e, 0x64, 0xbe, 0x3b, 0x7a, 0x8f, 0x3e, 0x98, 0x97, 0x17, 0xbd,
  0xb3, 0x70, 0x18, 0xbd, 0xa4, 0xbc, 0xd2, 0x3e, 0x1f, 0xa0, 0x0f, 0xbf,
  0xda, 0x23, 0x26, 0x3e, 0xb7, 0x00, 0x47, 0xbe, 0x07, 0x5d, 0xbd, 0x3e,
  0xd9, 0xe2, 0xdc, 0x3d, 0x3f, 0x12, 0x39, 0xbc, 0x87, 0x34, 0xf3, 0xbc,
  0xf6, 0xac, 0xdd, 0xbf, 0x79, 0x93, 0xa6, 0x3e, 0x8d, 0x48, 0x5a, 0x3e,
  0x90, 0x68, 0x61, 0x3e, 0x66, 0x1c, 0x82, 0x3e, 0x16, 0xf2, 0x5b, 0x3d,
  0x04, 0x9a, 0xa8, 0x3d, 0xd4, 0xcc, 0xd5, 0xbe, 0x16, 0x58, 0x18, 0x3f,
  0xa5, 0x99, 0xba, 0x3e, 0x50, 0x27, 0xf8, 0x3e, 0x3a, 0xbd, 0x67, 0x3d,
  0x45, 0x32, 0x88, 0x3e, 0x36, 0x98, 0x15, 0xbf, 0xf6, 0x52, 0x8a, 0xbe,
  0xf6, 0x85, 0x3b, 0xbb, 0xc6, 0x4e, 0x42, 0xbc, 0x30, 0x93, 0x4b, 0xbf,
  0x1d, 0xa2, 0xce, 0xbd, 0xc3, 0x62, 0xad, 0x3b, 0x97, 0xe3, 0x12, 0xbf,
  0xea, 0xd1, 0x69, 0x3d, 0x7b, 0x47, 0x1a, 0x3f, 0x20, 0x53, 0x6d, 0x3e,
  0x55, 0xa7, 0xba, 0xbe, 0xf9, 0xd2, 0xab, 0x3e, 0xef, 0xd4, 0x01, 0xbf,
  0x1a, 0x61, 0xee, 0x3e, 0x64, 0xe9, 0xea, 0x3d, 0x64, 0x59, 0x16, 0x3d,
  0xcd, 0xbd, 0x83, 0xbe, 0x57, 0x3e, 0x16, 0x3e, 0xdd, 0x72, 0x96, 0x3e,
  0x4d, 0xf1, 0x58, 0x3f, 0xd5, 0x96, 0xc1, 0x3f, 0x07, 0x8a, 0xae, 0x3f,
  0x2e, 0x55, 0x74, 0x3f, 0xb0, 0xe4, 0x88, 0xbf, 0x73, 0x96, 0x91, 0xbe,
  0x20, 0xc4, 0xce, 0xbe, 0x08, 0x47, 0xba, 0xbd, 0xac, 0xd2, 0x1f, 0x3f,
  0x50, 0xd9, 0x00, 0x3f, 0x13, 0x76, 0x20, 0xbd, 0x7c, 0x7b, 0xa8, 0x3e,
  0x94, 0x78, 0x39, 0xbd, 0x0c, 0x9c, 0x1a, 0x3f, 0xaa, 0x5d, 0x60, 0xbe,
  0x77, 0x8b, 0x2d, 0xbf, 0x84, 0xa7, 0x29, 0x3e, 0x34, 0x0e, 0xab, 0x3e,
  0xd6, 0x14, 0xd2, 0xbd, 0x60, 0x3c, 0x07, 0x3f, 0xa0, 0x04, 0x8f, 0x3e,
  0x19, 0x15, 0x69, 0xbe, 0x22, 0x10, 0x27, 0x3e, 0x25, 0xdc, 0xad, 0x3b,
  0xe2, 0x07, 0x20, 0xbc, 0x3c, 0x80, 0x16, 0xbd, 0xff, 0x7d, 0x15, 0x3f,
  0x2d, 0x63, 0x12, 0x3e, 0x94, 0x92, 0x58, 0x3a, 0x38, 0x64, 0x2a, 0xbd,
  0x3b, 0xe0, 0x6e, 0xbf, 0xaf, 0xda, 0xa5, 0x3e, 0x2c, 0xe3, 0x4a, 0xbf,
  0x18, 0x56, 0x0f, 0xbe, 0x0b, 0x50, 0x15, 0xbd, 0xe0, 0xaa, 0xcd, 0x3c,
  0xd0, 0x29, 0x00, 0xbe, 0x9e, 0xaf, 0x98, 0xbe, 0x68, 0x6f, 0x64, 0xbe,
  0xaa, 0x58, 0x46, 0xbe, 0x39, 0x30, 0x6e, 0x3e, 0xfc, 0x98, 0x38, 0xbe,
  0x3b, 0x28, 0xcf, 0x3e, 0x3d, 0x6f, 0x13, 0xbf, 0x4f, 0x97, 0x60, 0xbe,
  0x1e, 0xa4, 0xc8, 0xbd, 0x75, 0x08, 0x6c, 0x3e, 0xb2, 0xac, 0x12, 0x3f,
  0x5c, 0x0c, 0x10, 0x3d, 0x56, 0x4a, 0x09, 0x3f, 0xa4, 0x8f, 0x41, 0x3f,
  0xb5, 0xe3, 0x05, 0x3f, 0x72, 0xf6, 0xdb, 0xbe, 0x14, 0x38, 0xe5, 0xbd,
  0x6c, 0xbb, 0x6f, 0x3e, 0x4a, 0xed, 0xff, 0xff, 0x04, 0x00, 0x00, 0x00,
  0x00, 0x09, 0x00, 0x00, 0xa2, 0x45, 0x15, 0x3e, 0x0a, 0x23, 0xc3, 0xbe,
  0x29, 0x0a, 0x7b, 0xbe, 0x10, 0x76, 0x35, 0x3f, 0xa3, 0xcb, 0x04, 0x3f,
  0x3c, 0x1c, 0x74, 0xbe, 0xba, 0x81, 0xde, 0xbe, 0xfc, 0xa8, 0xf7, 0x3d,
  0x58, 0x2e, 0xed, 0xbd, 0x4f, 0xa4, 0xbf, 0x3e, 0xe2, 0x33, 0x80, 0x3f,
  0x44, 0x60, 0x46, 0x3f, 0xa3, 0x73, 0x85, 0x3e, 0xa3, 0x14, 0x15, 0x3f,
  0x42, 0x5c, 0xb7, 0x3e, 0xbe, 0xae, 0xae, 0xbf, 0xda, 0x66, 0x6f, 0xbf,
  0x6f, 0x8c, 0x7f, 0x3e, 0x03, 0x90, 0x5d, 0xbe, 0xb5, 0x02, 0x14, 0xbf,
  0x72, 0xb8, 0xf8, 0x3c, 0x6d, 0x90, 0x4d, 0x3e, 0x3a, 0x3e, 0x18, 0x3e,
  0x8b, 0x49, 0x83, 0xbc, 0xb9, 0xaa, 0x58, 0xc0, 0x6f, 0x3b, 0x4b, 0xbf,
  0xee, 0x3f, 0x55, 0x3d, 0xea, 0xcb, 0x40, 0x3f, 0x86, 0xf7, 0x2e, 0xbf,
  0xad, 0x89, 0x31, 0x3f, 0x53, 0x37, 0xdb, 0xbc, 0x1c, 0xe1, 0x14, 0x3f,
  0x73, 0x8f, 0x96, 0x3e, 0x88, 0x60, 0x41, 0x3f, 0xa2, 0xb9, 0x83, 0xbf,
  0xfe, 0xbd, 0x8b, 0x3e, 0x4a, 0x9e, 0x89, 0xbf, 0x48, 0x80, 0x45, 0xbf,
  0xa1, 0xf9, 0x7e, 0x3d, 0x1a, 0xef, 0x63, 0xbd, 0x91, 0x2d, 0x17, 0x3f,
  0x2e, 0x37, 0x1f, 0x3f, 0x71, 0x28, 0xf4, 0xbf, 0x5b, 0xda, 0xec, 0xbd,
  0xe0, 0x5d, 0x8a, 0x3f, 0x95, 0x67, 0x15, 0x3f, 0x63, 0x85, 0x18, 0xbe,
  0x13, 0x18, 0xcc, 0xbe, 0xcf, 0xa5, 0x85, 0xbc, 0xd7, 0x00, 0x2c, 0x3e,
  0x3f, 0xfc, 0x7a, 0x3e, 0x4e, 0xa7, 0x68, 0xbd, 0xce, 0x7e, 0xe0, 0x3e,
  0x1c, 0xc5, 0x7f, 0x3e, 0x2b, 0xc9, 0xe9, 0xbd, 0xdc, 0xc5, 0x33, 0xbd,
  0x30, 0xbb, 0x23, 0xbe, 0xb6, 0xd8, 0xa1, 0xbb, 0x5b, 0xde, 0xa2, 0xbe,
  0x1c, 0xad, 0x7a, 0xbe, 0x0d, 0xa8, 0x6e, 0xbe, 0xa3, 0x21, 0x05, 0x3e,
  0x3f, 0x4a, 0x7b, 0xbc, 0xf8, 0xf4, 0xce, 0xbe, 0xab, 0x54, 0x8b, 0xbe,
  0x92, 0x58, 0xd5, 0x3e, 0x1f, 0x50, 0x8b, 0xbe, 0x07, 0xa3, 0x80, 0xbe,
  0xe2, 0x56, 0xf7, 0xbc, 0x20, 0x0e, 0x8b, 0x3e, 0x35, 0x20, 0xb3, 0xbe,
  0xa1, 0xdb, 0x9f, 0x3e, 0xcf, 0xcb, 0x1b, 0xbf, 0xd4, 0xbc, 0x11, 0xbf,
  0x6c, 0xe5, 0x8e, 0xbc, 0xbe, 0x52, 0x45, 0x3e, 0x3d, 0xf6, 0x4b, 0xbf,
  0x71, 0x9d, 0x2c, 0x3f, 0x9f, 0xde, 0x65, 0xbf, 0xfc, 0x27, 0x1c, 0xbe,
  0x14, 0x87, 0xc9, 0xbd, 0xa7, 0x58, 0x62, 0xbf, 0x32, 0x78, 0x98, 0x3e,
  0xce, 0x8d, 0xf0, 0x3d, 0xc3, 0x0a, 0x57, 0x3d, 0x6d, 0x5f, 0xff, 0x3e,
  0xa5, 0x3b, 0x4e, 0xbe, 0xa2, 0x04, 0x83, 0xbf, 0x82, 0x88, 0xef, 0xbb,
  0x59, 0xa6, 0x8f, 0xbf, 0xda, 0x65, 0x49, 0x3e, 0x97, 0x7d, 0xe9, 0xbe,
  0xa4, 0xf5, 0x51, 0x3f, 0x65, 0xf1, 0xfd, 0x3e, 0xe0, 0xdf, 0x17, 0xbe,
  0xca, 0x5b, 0xc1, 0x3e, 0x56, 0x6a, 0x18, 0x3f, 0x23, 0xdb, 0x7e, 0xbd,
  0xfa, 0x16, 0x97, 0xbd, 0x35, 0x40, 0x17, 0x3e, 0xa9, 0xf1, 0x13, 0x3f,
  0x55, 0x74, 0xff, 0x3d, 0x9d, 0xae, 0x86, 0xbe, 0x39, 0x71, 0xad, 0x3d,
  0x51, 0x63, 0xa3, 0x3e, 0x1d, 0x9c, 0xe0, 0x3e, 0x0f, 0x8f, 0x92, 0x3f,
  0x7b, 0x26, 0xa6, 0x3f, 0xd2, 0x56, 0x40, 0x3f, 0xf2, 0xa3, 0x34, 0x3f,
  0xdc, 0x2a, 0xa4, 0xbe, 0xf1, 0x35, 0xda, 0xbe, 0x92, 0xd4, 0x1f, 0x3b,
  0x84, 0xc3, 0x25, 0xbd, 0x40, 0x60, 0x67, 0xbe, 0x19, 0x8d, 0x27, 0xbf,
  0x24, 0x12, 0x8e, 0xbd, 0xaa, 0xc9, 0x2f, 0xbd, 0x49, 0x9f, 0xfd, 0xbd,
  0x54, 0x06, 0x6b, 0x3e, 0x26, 0x27, 0x5b, 0x3f, 0x98, 0xe7, 0x7b, 0x3e,
  0x93, 0x04, 0xaa, 0xbd, 0xfb, 0xc8, 0x0a, 0xbe, 0xa1, 0xe5, 0x38, 0xbc,
  0x82, 0xa8, 0x4f, 0xbf, 0x49, 0x25, 0x3d, 0xbf, 0x49, 0xd2, 0x61, 0xbe,
  0x5c, 0xb0, 0x21, 0xbf, 0xb5, 0xf4, 0x10, 0x3f, 0xb0, 0x2e, 0x32, 0x3f,
  0x2a, 0x29, 0xb7, 0x3e, 0x20, 0x6f, 0xa7, 0x3d, 0x28, 0x13, 0x35, 0x3e,
  0x58, 0xd1, 0xd2, 0xbd, 0x5e, 0x7e, 0x81, 0xb9, 0x57, 0xb8, 0x12, 0xbf,
  0x9e, 0xf8, 0xce, 0x3d, 0x10, 0x70, 0xbe, 0xbf, 0x93, 0x65, 0x33, 0xbf,
  0x3c, 0x5c, 0xa2, 0x3e, 0x58, 0xb2, 0x49, 0x3e, 0x07, 0xc1, 0x33, 0xbe,
  0x8a, 0x2f, 0xd5, 0xbe, 0x0a, 0xfd, 0x3a, 0x3f, 0x1a, 0xdb, 0x39, 0xbf,
  0x4f, 0xdf, 0x01, 0x3d, 0x61, 0x00, 0x58, 0x3e, 0xcb, 0x87, 0x1d, 0x3f,
  0xc3, 0xe6, 0x93, 0xbd, 0x2c, 0xe1, 0xb2, 0xbe, 0x2c, 0x5e, 0x3f, 0xbe,
  0x2a, 0x29, 0xb1, 0xbd, 0x76, 0xe0, 0x6f, 0x3f, 0x7e, 0xc3, 0xc2, 0xbe,
  0x2a, 0x34, 0xa4, 0x3c, 0x3d, 0xf8, 0x34, 0xbf, 0x19, 0xe5, 0x28, 0xbf,
  0x61, 0x90, 0x05, 0x3e, 0xc9, 0xb5, 0x40, 0xbe, 0x5a, 0x0a, 0x11, 0xbe,
  0x9d, 0x0e, 0x2b, 0x3f, 0x60, 0x3d, 0xb9, 0x3e, 0xb4, 0xd5, 0x2a, 0xbf,
  0x02, 0x75, 0x11, 0x3f, 0x2b, 0x68, 0xd1, 0x3e, 0x37, 0x80, 0x9c, 0x3e,
  0x4f, 0x6d, 0xe3, 0x3e, 0xff, 0x06, 0x6a, 0xbe, 0x4d, 0x18, 0x14, 0x3d,
  0x20, 0xef, 0xaa, 0xbd, 0x14, 0xba, 0x7d, 0x3d, 0x91, 0x9b, 0x14, 0xbe,
  0xfc, 0x83, 0x07, 0x3e, 0x7b, 0xb2, 0x16, 0x3e, 0x06, 0x07, 0xbc, 0xbd,
  0x05, 0x19, 0x0c, 0x3e, 0x40, 0x81, 0xc7, 0xbc, 0xa5, 0x96, 0x1c, 0x3e,
  0x6d, 0x16, 0xf1, 0xbe, 0x88, 0xf8, 0xb3, 0xbd, 0x27, 0xd3, 0x64, 0xbe,
  0x44, 0xd0, 0x70, 0xbe, 0x62, 0x82, 0xc3, 0xbd, 0x45, 0xcb, 0x94, 0xbe,
  0x59, 0x2a, 0x04, 0xbd, 0x67, 0x5f, 0xe3, 0x3d, 0xa8, 0x95, 0x17, 0xbd,
  0x10, 0xd2, 0x69, 0x3e, 0x5e, 0x4e, 0x82, 0xbe, 0x04, 0x52, 0xb0, 0xbe,
  0x32, 0xf3, 0x66, 0xbe, 0x35, 0x2e, 0xb0, 0x3f, 0x8f, 0x5a, 0x0a, 0x3e,
  0xcb, 0xae, 0x10, 0x3e, 0xf0, 0x4e, 0x58, 0xbf, 0x10, 0x0e, 0x01, 0xbe,
  0x6a, 0xb0, 0xea, 0xbe, 0xf3, 0x73, 0xe0, 0x3e, 0x8c, 0xed, 0x4f, 0xbf,
  0xf4, 0x79, 0x72, 0xbf, 0xc7, 0x31, 0xda, 0x3d, 0xe2, 0xe3, 0x5e, 0x3f,
  0x15, 0x25, 0xfb, 0xbe, 0xbc, 0x35, 0x31, 0x3e, 0xed, 0x5f, 0x5f, 0xbf,
  0xb2, 0x66, 0xfd, 0xbe, 0x7b, 0xf1, 0xfe, 0x3e, 0xff, 0xa8, 0xfc, 0x3d,
  0x74, 0xbd, 0x86, 0x3e, 0x82, 0x6d, 0x0c, 0x3f, 0x2c, 0x1a, 0xfc, 0x3e,
  0x72, 0xf5, 0x06, 0xbf, 0x4f, 0x83, 0x53, 0xbf, 0xee, 0x4f, 0x4a, 0xbe,
  0x14, 0x0b, 0xef, 0xbf, 0x0b, 0x43, 0x1d, 0x3f, 0xd2, 0x48, 0xf9, 0xbe,
  0x83, 0xda, 0x27, 0x3f, 0x63, 0x59, 0x15, 0xbf, 0x25, 0x59, 0xf0, 0x3d,
  0x66, 0x1d, 0x65, 0xbf, 0xb8, 0xd1, 0x94, 0xbe, 0x31, 0x4a, 0x9c, 0x3e,
  0x4e, 0xea, 0xb4, 0x3e, 0x12, 0xb2, 0x9f, 0x3e, 0x87, 0x90, 0xb4, 0x3e,
  0xdd, 0xf6, 0x66, 0x3e, 0x41, 0x82, 0x3c, 0xbf, 0xe3, 0x4c, 0x23, 0xbf,
  0xd1, 0xa3, 0xe1, 0x3d, 0x54, 0x4f, 0x39, 0x3e, 0xe4, 0x04, 0x04, 0xbf,
  0x85, 0xa1, 0x3f, 0xbb, 0xd2, 0x31, 0x9a, 0xbd, 0x6b, 0x0c, 0x0c, 0x3f,
  0x91, 0x3a, 0x0e, 0xbf, 0xe6, 0x46, 0x82, 0xbe, 0xf0, 0xdd, 0x97, 0xbc,
  0x1a, 0x3a, 0xbe, 0x3f, 0x3a, 0x75, 0xeb, 0xbd, 0x06, 0xb6, 0xf6, 0xbe,
  0x69, 0xad, 0xff, 0x3e, 0xb2, 0x33, 0xe9, 0x3e, 0x15, 0x93, 0xce, 0xbe,
  0xbb, 0x7d, 0xb8, 0x3d, 0x2d, 0x31, 0x09, 0x3f, 0xd5, 0x59, 0x41, 0x3e,
  0x6e, 0x96, 0x7c, 0xbf, 0x60, 0x2c, 0x47, 0xbf, 0x61, 0xae, 0xdd, 0xbe,
  0x1d, 0xb7, 0xdb, 0xbd, 0xdd, 0x38, 0x77, 0x3f, 0xf9, 0x8f, 0xd8, 0x3e,
  0x65, 0xa3, 0xb5, 0x3e, 0xae, 0x5d, 0x5a, 0xbf, 0xae, 0x46, 0x14, 0xbe,
  0xd5, 0x8e, 0x15, 0x3e, 0x84, 0xf5, 0x0f, 0x3f, 0x34, 0x35, 0x35, 0xbf,
  0x8b, 0xb4, 0xa5, 0xbd, 0x17, 0x9b, 0x8d, 0x3f, 0x19, 0x9c, 0xa2, 0x3d,
  0xdf, 0x5c, 0xc7, 0xbe, 0xe0, 0xc4, 0x34, 0xbe, 0xb8, 0x32, 0xb0, 0xbe,
  0xe1, 0x33, 0x8a, 0xbd, 0xd2, 0x31, 0x33, 0x3e, 0xfc, 0x22, 0x97, 0xbe,
  0x81, 0xa4, 0x95, 0x3e, 0xd9, 0x61, 0x5d, 0x3e, 0x8b, 0x2f, 0x71, 0xbe,
  0x83, 0xc3, 0xc2, 0xbe, 0x41, 0xc8, 0x8e, 0xbe, 0x81, 0x98, 0x11, 0x3f,
  0x10, 0x48, 0xf9, 0x3e, 0xc2, 0xed, 0x27, 0x3e, 0x7e, 0x72, 0x14, 0x3f,
  0x3f, 0x56, 0xb5, 0xbe, 0x24, 0x67, 0x47, 0xc0, 0xb2, 0x20, 0xba, 0xbe,
  0xb2, 0x6a, 0x39, 0xbf, 0xc1, 0x2e, 0x10, 0xbe, 0x29, 0x44, 0xcf, 0xbd,
  0xe8, 0x36, 0xae, 0x3e, 0xfa, 0xd2, 0x55, 0x3e, 0xe4, 0x7a, 0x8d, 0xbd,
  0x37, 0xbe, 0x2b, 0x3f, 0x8c, 0x80, 0xcd, 0x3e, 0xd6, 0xfb, 0x3e, 0x3e,
  0x3d, 0xbb, 0x8d, 0xbe, 0xed, 0x42, 0xe5, 0x3e, 0x45, 0x1f, 0xb7, 0xbd,
  0xf9, 0xe0, 0x4d, 0xbe, 0x98, 0x2e, 0x20, 0xbf, 0x52, 0x16, 0xd2, 0x3e,
  0x97, 0x45, 0x12, 0x3e, 0x8d, 0xf5, 0x50, 0x3f, 0x6c, 0xd7, 0x50, 0x3e,
  0x3e, 0xf4, 0x6b, 0x3e, 0xc1, 0xba, 0xad, 0xbe, 0x10, 0x99, 0xa0, 0xbe,
  0xd2, 0x87, 0xbf, 0xbe, 0x30, 0xc5, 0x94, 0xbe, 0xf7, 0x38, 0xc8, 0xbe,
  0xd0, 0xad, 0xc7, 0x3e, 0x2d, 0x59, 0xbf, 0xbe, 0x18, 0xf2, 0x7b, 0xbd,
  0xfd, 0x52, 0x7b, 0x3f, 0x0e, 0xe6, 0x9a, 0xbe, 0x1e, 0xd4, 0x6e, 0xbe,
  0xc3, 0xe8, 0x8b, 0x3e, 0x68, 0x23, 0x5e, 0x3f, 0x2f, 0x60, 0xf6, 0xbe,
  0xcb, 0xb7, 0x5d, 0x3e, 0x71, 0x05, 0x0b, 0xbf, 0x07, 0x9b, 0x08, 0x3f,
  0xdb, 0xbd, 0x7e, 0x3e, 0xae, 0xf1, 0xe8, 0xbd, 0xc9, 0x07, 0x08, 0xbf,
  0x4b, 0x16, 0x50, 0x3f, 0xe9, 0xe9, 0x29, 0x3e, 0x16, 0xf6, 0x5c, 0x3f,
  0xab, 0xe3, 0x91, 0x3f, 0x07, 0x4f, 0xf4, 0xbe, 0xf7, 0xd3, 0xc7, 0xbe,
  0x0e, 0x34, 0xcd, 0x3d, 0x30, 0xdc, 0x03, 0xbd, 0x55, 0xfe, 0x10, 0xbe,
  0xcf, 0x83, 0xf7, 0x3e, 0x94, 0x06, 0xf6, 0xbd, 0x3e, 0x4a, 0xc6, 0xbe,
  0xbf, 0xf8, 0x44, 0x3f, 0x13, 0xed, 0x96, 0x3e, 0x2c, 0xa3, 0x3e, 0x3e,
  0x4c, 0x98, 0x3c, 0x3f, 0x88, 0x22, 0x57, 0xbe, 0x2b, 0x4c, 0x78, 0x3e,
  0xbf, 0xa1, 0xb4, 0xbe, 0x7a, 0x90, 0x96, 0xbe, 0xb7, 0xe4, 0xad, 0xbe,
  0x5e, 0xf2, 0xa6, 0xbe, 0x43, 0x38, 0x1c, 0x3e, 0x21, 0x0c, 0x41, 0xbe,
  0xc2, 0x7b, 0x07, 0xbd, 0xcd, 0x78, 0xb7, 0xbe, 0x4e, 0x9e, 0x09, 0xbf,
  0x6a, 0xf7, 0x80, 0x3e, 0x05, 0x80, 0xec, 0xbe, 0xf4, 0x50, 0xbb, 0xbe,
  0x6a, 0xe1, 0xe8, 0x3d, 0xd6, 0x4f, 0x89, 0xbe, 0x1d, 0xb6, 0x07, 0x3e,
  0x66, 0x49, 0x03, 0xbd, 0x99, 0xd8, 0x25, 0xbe, 0xf4, 0xce, 0x3f, 0xbe,
  0xdb, 0x57, 0x22, 0xbd, 0xc7, 0x73, 0x34, 0x3e, 0xc6, 0x85, 0x6b, 0x3e,
  0x72, 0xbe, 0x93, 0x3d, 0xe1, 0x25, 0x93, 0xbe, 0xec, 0xbd, 0x9a, 0x3e,
  0xc2, 0xf3, 0x02, 0xbd, 0x3f, 0x34, 0xa9, 0xbd, 0x94, 0x10, 0x54, 0xbf,
  0x8b, 0x05, 0x07, 0xbf, 0x25, 0x5d, 0x26, 0xbf, 0xd3, 0x3e, 0xe1, 0x3e,
  0xc4, 0x2e, 0x23, 0xbf, 0x1d, 0x35, 0x85, 0xbf, 0x15, 0x7d, 0xcc, 0x3e,
  0x71, 0xe5, 0x13, 0x3f, 0x0d, 0xd0, 0xac, 0x3e, 0x65, 0xe8, 0x44, 0x3e,
  0xec, 0x00, 0x37, 0xbe, 0xfb, 0xbd, 0x22, 0xbe, 0x80, 0x66, 0x82, 0xbe,
  0x69, 0x30, 0x0c, 0xbf, 0x2a, 0x5f, 0xce, 0xbe, 0x38, 0x52, 0x31, 0x3e,
  0xad, 0x93, 0xfa, 0x3e, 0x2c, 0x21, 0xbe, 0xbe, 0x22, 0xa0, 0x9b, 0x3d,
  0x2d, 0x73, 0xf2, 0x3e, 0xca, 0x7c, 0xb9, 0x3d, 0x33, 0xd3, 0x2c, 0xbf,
  0x57, 0xf0, 0xa7, 0xbe, 0x8a, 0x78, 0x92, 0x3d, 0xfc, 0xf3, 0x24, 0x3f,
  0x18, 0x9b, 0xc2, 0x3e, 0xde, 0xfc, 0x48, 0xbf, 0x63, 0xc1, 0x8f, 0xbe,
  0x69, 0x0f, 0xc7, 0xbf, 0xc4, 0x2a, 0x88, 0xbe, 0x02, 0x46, 0xed, 0x3e,
  0x5a, 0x1a, 0x94, 0xbe, 0x06, 0x6c, 0xc3, 0x3c, 0xfd, 0xec, 0xa1, 0xbd,
  0x63, 0x6b, 0xf8, 0x3e, 0x35, 0xe3, 0x44, 0x3d, 0x1e, 0xc6, 0x4f, 0xbf,
  0xc8, 0x6f, 0xd1, 0xbe, 0x9f, 0x6d, 0xbb, 0x3e, 0xfc, 0x25, 0x7e, 0xbf,
  0x44, 0x7f, 0x0d, 0x3e, 0x7f, 0xb7, 0x3a, 0x3f, 0x0b, 0xd7, 0xc4, 0x3e,
  0x59, 0xde, 0x9d, 0xbf, 0x77, 0x29, 0x8a, 0xbe, 0x8a, 0x28, 0xc2, 0xbf,
  0xfd, 0xed, 0x00, 0x3e, 0xad, 0x04, 0x5b, 0x3e, 0x99, 0xf3, 0xea, 0x3e,
  0x36, 0x4c, 0x85, 0xbe, 0xe1, 0x46, 0xf0, 0xbe, 0x1f, 0xda, 0x2d, 0xbe,
  0x69, 0x5e, 0x45, 0x3f, 0x85, 0x26, 0xdc, 0x3e, 0x50, 0x83, 0x5d, 0x3d,
  0xf8, 0xe9, 0x91, 0x3e, 0xc3, 0x21, 0x67, 0xbf, 0xbd, 0x88, 0x06, 0xbf,
  0x05, 0x37, 0x9f, 0xbe, 0xb2, 0xf8, 0xb4, 0xbe, 0xfc, 0x30, 0x5a, 0xbf,
  0x62, 0x82, 0x97, 0xbe, 0x1e, 0xf5, 0xd6, 0xbe, 0xdf, 0xa7, 0xc3, 0xbe,
  0x16, 0x07, 0x37, 0x3f, 0x9e, 0xba, 0x06, 0x3f, 0xc2, 0xd6, 0x96, 0x3e,
  0xd9, 0xfb, 0xd9, 0x3e, 0xbf, 0x17, 0x6d, 0x3f, 0xad, 0x62, 0x2d, 0xbf,
  0xe6, 0x88, 0xc0, 0x3e, 0xd9, 0xd6, 0xf8, 0x3d, 0x2f, 0x02, 0x1d, 0x3f,
  0xd7, 0x45, 0x23, 0x3f, 0x00, 0x7e, 0xdf, 0x3c, 0x8c, 0xaf, 0x65, 0xbf,
  0x3d, 0x39, 0x79, 0xbf, 0x8a, 0xfa, 0xfa, 0x3d, 0x4d, 0x59, 0xf9, 0x3e,
  0xc4, 0x87, 0x32, 0x3d, 0xf6, 0x40, 0xf5, 0x3e, 0x37, 0x29, 0xc9, 0x3e,
  0x56, 0x75, 0x96, 0xbe, 0x71, 0xa2, 0xfe, 0xbe, 0x65, 0x1b, 0x1d, 0xbe,
  0xe8, 0xee, 0xad, 0xbd, 0x5e, 0xf8, 0xfe, 0x3e, 0xc4, 0x74, 0xbb, 0xbf,
  0xc7, 0x72, 0xc1, 0xbe, 0xb8, 0x23, 0x02, 0x3d, 0x64, 0xe9, 0x92, 0x3e,
  0xe5, 0xbe, 0x70, 0xbf, 0xa4, 0x37, 0x1f, 0x3f, 0xcf, 0xe1, 0xea, 0xbf,
  0x4c, 0xcb, 0x72, 0x3e, 0xbc, 0x05, 0x1a, 0xbe, 0xe0, 0x22, 0x9f, 0x3e,
  0x1e, 0x37, 0x0f, 0x3f, 0x92, 0xfe, 0x3e, 0xbf, 0xc5, 0x27, 0xe2, 0xbe,
  0x80, 0x90, 0x0a, 0x3e, 0xfd, 0x1f, 0x7a, 0x3e, 0x58, 0xec, 0x1c, 0x3f,
  0xab, 0x71, 0x40, 0x3f, 0x39, 0x4d, 0xa7, 0xbd, 0x6b, 0xac, 0x26, 0x3f,
  0x6f, 0xbd, 0x07, 0x3f, 0x93, 0x96, 0x7d, 0xbe, 0x0a, 0x36, 0x38, 0xbf,
  0xca, 0x48, 0xf8, 0x3d, 0xc0, 0x91, 0x02, 0xbd, 0xd3, 0x29, 0xa0, 0xbf,
  0x01, 0xf6, 0x32, 0xbf, 0x89, 0xc6, 0x8d, 0x3e, 0x80, 0x63, 0xbb, 0x3b,
  0x36, 0xd9, 0x91, 0xbc, 0x3e, 0x8a, 0x35, 0x3f, 0x59, 0xb2, 0x56, 0xbf,
  0x0a, 0xf7, 0x22, 0x3e, 0x91, 0x2f, 0x3c, 0xbf, 0x7e, 0x44, 0x66, 0x3f,
  0xc6, 0x1e, 0x97, 0xbe, 0x8e, 0xad, 0x7a, 0xbf, 0xac, 0x39, 0x52, 0xbf,
  0x19, 0xf4, 0x23, 0xbf, 0x90, 0xfd, 0xe6, 0x3d, 0x87, 0x7a, 0x32, 0x3f,
  0x5f, 0xef, 0x83, 0xbf, 0xcc, 0xb0, 0x3f, 0xbf, 0x5f, 0x1d, 0x42, 0xbf,
  0xfa, 0xf0, 0xd7, 0xbe, 0x40, 0x3e, 0xd0, 0xbd, 0x70, 0xba, 0x84, 0xbf,
  0x1d, 0x22, 0x0c, 0x3e, 0x7a, 0x9c, 0x08, 0x3e, 0x2e, 0x37, 0xa7, 0xbf,
  0x78, 0x08, 0x36, 0x3f, 0x07, 0x48, 0x7b, 0x3f, 0xe8, 0x1b, 0x7e, 0xbd,
  0x05, 0x00, 0xfe, 0x3e, 0x3f, 0xb9, 0x1e, 0xc0, 0xba, 0x3d, 0x6d, 0xbf,
  0x89, 0x33, 0xcb, 0xbd, 0x64, 0x28, 0xc8, 0x3e, 0x3c, 0x4e, 0x91, 0xbf,
  0x6f, 0x6b, 0xdb, 0xbe, 0x6d, 0xd6, 0x56, 0x3f, 0x30, 0xa2, 0x98, 0xbd,
  0x61, 0xdd, 0xc2, 0x39, 0x9d, 0x7d, 0x4f, 0x3e, 0xa5, 0xb8, 0x3d, 0x3e,
  0x36, 0x5d, 0x01, 0x3f, 0x12, 0xc6, 0x31, 0x3d, 0x8d, 0xc8, 0xad, 0x3d,
  0x0f, 0xe6, 0xe0, 0x3e, 0x76, 0xf4, 0xc8, 0x3e, 0xd6, 0x03, 0x87, 0x3f,
  0x03, 0x0a, 0x1f, 0x3d, 0x0f, 0xa2, 0x10, 0xc0, 0xb2, 0x43, 0x6a, 0x3e,
  0x56, 0x9f, 0xa3, 0x3f, 0x7b, 0xa5, 0x0c, 0x3f, 0x51, 0x10, 0x22, 0xbe,
  0xe6, 0xdb, 0x6f, 0x3d, 0x39, 0x8b, 0x77, 0x3e, 0xcc, 0x82, 0x10, 0xbf,
  0xec, 0xdb, 0xad, 0xbb, 0xb6, 0x94, 0x1f, 0x3e, 0x39, 0x97, 0x00, 0x3f,
  0x8a, 0xab, 0x40, 0x3f, 0x22, 0x97, 0x2a, 0xbe, 0x56, 0x33, 0xfc, 0x3d,
  0xea, 0xcd, 0x20, 0x3f, 0x95, 0x0a, 0x43, 0xbe, 0x26, 0xa0, 0x7a, 0x3e,
  0x9c, 0x48, 0x85, 0xbf, 0x76, 0x59, 0x84, 0xbf, 0x90, 0x69, 0x1d, 0xbf,
  0x4f, 0x1b, 0xd3, 0x3e, 0xbe, 0xb8, 0x07, 0xbd, 0x13, 0x37, 0xaf, 0x3d,
  0xe7, 0xee, 0x55, 0x3e, 0x6a, 0xad, 0x29, 0xbf, 0x4a, 0x17, 0xc3, 0x3e,
  0x02, 0xfc, 0x7e, 0x3f, 0x75, 0x5a, 0x98, 0x3f, 0xf7, 0xc1, 0x08, 0xbe,
  0x71, 0xbe, 0x0e, 0x3f, 0x14, 0x71, 0xb6, 0xbe, 0xfb, 0xc7, 0x03, 0xbf,
  0x86, 0x6c, 0x29, 0x3d, 0xd1, 0x13, 0x1c, 0x3f, 0x93, 0x16, 0x66, 0xbe,
  0xbb, 0xb1, 0xfd, 0x3c, 0x92, 0xdc, 0xe3, 0xbe, 0x9e, 0x8b, 0x95, 0xbe,
  0xf9, 0xba, 0x79, 0xbf, 0x87, 0x52, 0x03, 0xc0, 0x8d, 0x2e, 0xa3, 0x3d,
  0xc7, 0x10, 0x50, 0x3e, 0xda, 0x52, 0x43, 0x3f, 0x6a, 0x14, 0x28, 0x3f,
  0x91, 0x86, 0x05, 0xbe, 0xc7, 0xa8, 0xe3, 0x3d, 0xf4, 0x4b, 0x75, 0xbe,
  0x77, 0xf4, 0x95, 0xbf, 0xb6, 0x54, 0x2b, 0x3f, 0xc1, 0x87, 0x0f, 0xbf,
  0x21, 0x63, 0xa8, 0x3e, 0x81, 0x9e, 0xf8, 0x3e, 0x91, 0x56, 0xa5, 0xbd,
  0x81, 0x25, 0x06, 0xbf, 0x56, 0xf6, 0xff, 0xff, 0x04, 0x00, 0x00, 0x00,
  0x80, 0x04, 0x00, 0x00, 0xfa, 0xd9, 0xae, 0x3f, 0xd6, 0xc5, 0xdc, 0xbe,
  0xf3, 0x25, 0x80, 0x3f, 0xe3, 0xd4, 0x11, 0xbf, 0x67, 0x63, 0x6d, 0xbe,
  0xad, 0xf5, 0x67, 0x3f, 0xb2, 0x22, 0x5a, 0x3f, 0xdf, 0x73, 0x64, 0xbe,
  0xd6, 0x33, 0x39, 0xbd, 0x5f, 0xc9, 0x09, 0xbf, 0xce, 0x49, 0xc0, 0x3e,
  0x20, 0xbd, 0xc6, 0x3c, 0xc0, 0x36, 0xa6, 0x3c, 0x1b, 0x56, 0x45, 0x3f,
  0xe4, 0x76, 0x6c, 0xbf, 0x37, 0x93, 0x15, 0xbe, 0x04, 0x72, 0x80, 0x3d,
  0x79, 0x47, 0x01, 0xbf, 0xab, 0x29, 0xb6, 0x3f, 0x21, 0x70, 0x2c, 0xbf,
  0x31, 0x74, 0x9c, 0x3f, 0x71, 0x89, 0xd9, 0x3e, 0x15, 0x77, 0x43, 0x3f,
  0xf8, 0x3d, 0x16, 0x3e, 0x89, 0xfc, 0x33, 0xbf, 0x8b, 0x62, 0x19, 0x3f,
  0x2e, 0x4e, 0x03, 0xbf, 0xae, 0x95, 0x10, 0x3f, 0x98, 0x94, 0xb0, 0xbe,
  0xeb, 0xe9, 0x99, 0xbe, 0xf5, 0x0c, 0x04, 0xbe, 0x43, 0x61, 0xef, 0xbe,
  0x69, 0xb5, 0xae, 0x3e, 0xb2, 0x6a, 0x95, 0x3e, 0x76, 0xac, 0x6a, 0xbd,
  0x71, 0xc8, 0x4c, 0xbe, 0x4c, 0x32, 0x22, 0xbf, 0x44, 0xef, 0xde, 0xbd,
  0xe9, 0xb0, 0x8d, 0x3e, 0x77, 0xa0, 0xd4, 0x3f, 0xbe, 0x39, 0x29, 0xbf,
  0xea, 0xb5, 0xe7, 0xbe, 0x23, 0xc6, 0x10, 0x3f, 0xf2, 0x6e, 0x20, 0x3e,
  0x8c, 0x8e, 0x65, 0xbf, 0xc9, 0x24, 0x08, 0xbf, 0xa3, 0x61, 0xec, 0x3e,
  0x1c, 0x4d, 0x23, 0xbe, 0x63, 0x9b, 0xf8, 0x3e, 0xbf, 0xfd, 0xd3, 0x3d,
  0xe1, 0x6c, 0xf3, 0x3a, 0x44, 0x55, 0xb6, 0x3e, 0x66, 0x20, 0x69, 0xbf,
  0x04, 0x6e, 0x9f, 0x3f, 0x63, 0xf0, 0xf4, 0x3d, 0x4d, 0x2a, 0x98, 0xbe,
  0x37, 0x78, 0x21, 0xbf, 0x28, 0x00, 0x36, 0xbf, 0x64, 0xe4, 0x25, 0xbb,
  0x82, 0x86, 0xb9, 0x3e, 0xc5, 0x58, 0xd2, 0xbe, 0xad, 0x0e, 0x0e, 0xc0,
  0x57, 0xe4, 0xb8, 0xbe, 0xf1, 0x6b, 0x7e, 0xbf, 0x61, 0xe5, 0xc7, 0xbe,
  0xea, 0xda, 0xeb, 0xbd, 0x83, 0xbc, 0xea, 0xbf, 0xd4, 0x4e, 0xab, 0xbe,
  0xd0, 0x98, 0xec, 0xbd, 0x25, 0x0f, 0x39, 0x3e, 0x58, 0x2b, 0xf4, 0xbe,
  0x30, 0x7b, 0xb2, 0x3e, 0x9e, 0x4b, 0x3a, 0x3f, 0x32, 0x29, 0x1f, 0xbf,
  0xf3, 0x33, 0xe6, 0xbe, 0xeb, 0x38, 0x99, 0xbf, 0x88, 0x95, 0x1f, 0x3f,
  0xc0, 0x63, 0x6c, 0xbf, 0x1a, 0xa3, 0x06, 0xc0, 0xe7, 0x32, 0x1c, 0xbf,
  0x0e, 0x02, 0xdd, 0xbe, 0x45, 0x28, 0x0d, 0x3f, 0xcf, 0xd5, 0xa6, 0xbe,
  0xf8, 0x99, 0x98, 0xbd, 0x75, 0x9d, 0x05, 0xc0, 0xce, 0xbb, 0xe0, 0xbe,
  0x16, 0x52, 0xa0, 0x3e, 0x62, 0x14, 0x2d, 0x3f, 0xd0, 0x81, 0xce, 0xbc,
  0x44, 0xe9, 0xb4, 0x3e, 0x4e, 0x05, 0x2e, 0x3f, 0xc1, 0x35, 0xa4, 0x3b,
  0x92, 0xcf, 0x53, 0x3f, 0x0f, 0xe6, 0x18, 0xbf, 0xf8, 0x27, 0x08, 0x3f,
  0xdc, 0x83, 0x8b, 0xbd, 0xd6, 0xde, 0x2b, 0xc0, 0xe9, 0xe0, 0xa7, 0x3f,
  0xbc, 0xc1, 0x3e, 0xbe, 0xa2, 0x07, 0x34, 0x3e, 0xe8, 0x98, 0x32, 0xbf,
  0x59, 0x74, 0xb5, 0x3f, 0x4f, 0x18, 0xb6, 0x3e, 0x83, 0x51, 0x22, 0xbf,
  0xf1, 0x31, 0x24, 0x3e, 0xdf, 0x08, 0x40, 0xc0, 0x5e, 0x53, 0xd7, 0x3e,
  0x28, 0xd8, 0x3b, 0x3e, 0x24, 0xd2, 0x1f, 0x3e, 0xd1, 0xd2, 0xa2, 0xbd,
  0xa7, 0x51, 0x1c, 0xbe, 0x1a, 0xed, 0xa1, 0x3f, 0x83, 0x00, 0x66, 0x3f,
  0xe9, 0x12, 0xcb, 0x3e, 0x9c, 0xca, 0x59, 0xbf, 0xc9, 0xa0, 0x4b, 0xbe,
  0xb0, 0x4d, 0x5b, 0xbf, 0x5c, 0x03, 0x13, 0xbe, 0xce, 0x47, 0x5e, 0xbf,
  0x64, 0x96, 0x59, 0xbd, 0x78, 0xcf, 0xb5, 0x3e, 0x84, 0xd5, 0x29, 0x3f,
  0xb8, 0x22, 0x68, 0x3f, 0x35, 0x54, 0x01, 0xbf, 0x72, 0x41, 0x7c, 0xbe,
  0x7f, 0x7c, 0x7d, 0x3f, 0x23, 0x35, 0xc2, 0x3e, 0xb0, 0xf3, 0xe0, 0x3e,
  0xf9, 0xcb, 0x77, 0xbf, 0x55, 0x93, 0x92, 0xbf, 0x31, 0xc1, 0xae, 0xbe,
  0x10, 0x0a, 0x39, 0x3d, 0x68, 0x80, 0x1a, 0x3f, 0x02, 0x46, 0xfd, 0x3e,
  0x84, 0x99, 0x47, 0x3f, 0x8d, 0x4a, 0xb9, 0x3e, 0x3a, 0x34, 0x24, 0x3f,
  0xaf, 0x83, 0x5d, 0x3f, 0x50, 0xf2, 0xe6, 0xbf, 0x61, 0x41, 0x76, 0x3e,
  0x0e, 0x0b, 0xb1, 0xbe, 0x96, 0xfa, 0x7e, 0xbf, 0x53, 0x39, 0xf3, 0xbe,
  0xc1, 0x7b, 0x16, 0xbe, 0x22, 0x00, 0xaf, 0xbf, 0x02, 0xe3, 0x75, 0xbf,
  0x5e, 0x13, 0x96, 0xbe, 0x7d, 0xaf, 0xdc, 0x3e, 0xc9, 0x46, 0x71, 0xbf,
  0x3c, 0x54, 0xd3, 0xbe, 0xcc, 0x9f, 0x98, 0xbf, 0x77, 0x05, 0xe0, 0x3e,
  0xec, 0xf1, 0xce, 0xbe, 0xff, 0xee, 0x68, 0x3e, 0xc1, 0x15, 0x6a, 0x3f,
  0x50, 0xc9, 0xba, 0xbc, 0xb9, 0x14, 0x9f, 0xbe, 0x99, 0x31, 0xa8, 0x3e,
  0x4a, 0xd2, 0x14, 0x3f, 0x21, 0xe9, 0x55, 0xbe, 0x9b, 0xca, 0x57, 0xbf,
  0x1a, 0x22, 0xc8, 0xbe, 0x3c, 0xb7, 0x4f, 0xbf, 0xce, 0x40, 0x6a, 0x3e,
  0x29, 0x47, 0x30, 0xbf, 0xa5, 0x01, 0x46, 0xbf, 0xeb, 0x64, 0x2d, 0x3f,
  0x7c, 0x2a, 0x98, 0x3d, 0x92, 0x40, 0x3c, 0xbb, 0x84, 0x7d, 0xc2, 0xbe,
  0xcf, 0x7e, 0x30, 0xbd, 0xae, 0x96, 0x82, 0xbe, 0xa6, 0x5c, 0xad, 0xbe,
  0xe0, 0x15, 0xd7, 0x3e, 0x14, 0xff, 0x40, 0x3e, 0x9d, 0x3b, 0x87, 0x3e,
  0x7d, 0x2c, 0xf8, 0x3d, 0x50, 0x82, 0xed, 0xbe, 0x9a, 0xdd, 0x9e, 0xbe,
  0x76, 0x01, 0x8b, 0x3e, 0x38, 0x35, 0xf7, 0xbe, 0x7e, 0xa0, 0x71, 0x3e,
  0x25, 0xff, 0x90, 0xbf, 0x69, 0xef, 0x16, 0x3e, 0x16, 0x66, 0x5c, 0x3f,
  0xef, 0x86, 0xc6, 0x3e, 0x08, 0xd8, 0xbd, 0xbc, 0xd6, 0xa9, 0x50, 0x3e,
  0x8a, 0x49, 0x3e, 0x3f, 0x48, 0xbc, 0x33, 0x3f, 0x52, 0xcf, 0x32, 0xbf,
  0x00, 0x47, 0x9a, 0xbe, 0xcc, 0x2a, 0xc5, 0x3e, 0xd3, 0x09, 0xc1, 0xbf,
  0x9a, 0x8a, 0x67, 0xbf, 0xec, 0xca, 0x0e, 0xbf, 0xbc, 0x28, 0x39, 0x3f,
  0xe8, 0x62, 0x2c, 0xbf, 0x55, 0x15, 0x27, 0xc0, 0x8e, 0x2b, 0x7b, 0x3d,
  0x83, 0xbf, 0x22, 0xbf, 0xb1, 0x7c, 0x7e, 0x3e, 0x10, 0xf3, 0x2d, 0xbf,
  0xba, 0x0d, 0x05, 0x3e, 0x88, 0x3d, 0xa1, 0x3e, 0xbf, 0x28, 0x75, 0xbf,
  0xd0, 0x9e, 0xf5, 0x3c, 0x4c, 0x13, 0x87, 0x3f, 0x5f, 0xfd, 0x2c, 0x3f,
  0x6b, 0xe9, 0x2f, 0xbe, 0xfe, 0x41, 0xf6, 0xbe, 0x23, 0x02, 0xbb, 0x3d,
  0xb2, 0xde, 0x99, 0xbf, 0xd9, 0x27, 0xbd, 0xbe, 0xef, 0xbb, 0xea, 0xbe,
  0x09, 0x76, 0x0b, 0x3e, 0x85, 0x32, 0x89, 0xbf, 0x30, 0x85, 0xbc, 0xbe,
  0x54, 0x4a, 0x27, 0xbe, 0xcd, 0xd4, 0xcd, 0x3e, 0xee, 0xbe, 0x85, 0xbf,
  0x00, 0xb5, 0x8d, 0x3e, 0x25, 0x07, 0x84, 0xbe, 0x68, 0x17, 0x01, 0xbd,
  0xd6, 0x0c, 0xb0, 0xbe, 0x79, 0x3b, 0x15, 0xbf, 0x3e, 0x47, 0xc4, 0x3e,
  0xc9, 0x79, 0xb2, 0xbe, 0x61, 0x19, 0x21, 0xbf, 0xf2, 0x7d, 0x2d, 0x3f,
  0x92, 0xc7, 0x57, 0xbe, 0xe9, 0xc4, 0x12, 0x3e, 0xde, 0x5b, 0x82, 0x3f,
  0x86, 0xfd, 0x58, 0x3d, 0x3d, 0x19, 0x5e, 0xbe, 0xd1, 0x89, 0x06, 0xbe,
  0x7a, 0x7a, 0x00, 0x40, 0xa6, 0x30, 0x56, 0x3f, 0x95, 0xfa, 0x9b, 0x3d,
  0x94, 0x56, 0x46, 0xbe, 0x5e, 0x42, 0x7b, 0xbe, 0xf0, 0x67, 0xf5, 0x3c,
  0x68, 0x83, 0xb1, 0x3d, 0xc1, 0x90, 0x8f, 0x3f, 0xeb, 0x4f, 0x3d, 0x3f,
  0x24, 0xf3, 0xd6, 0x3e, 0x9c, 0x69, 0x31, 0x3e, 0x4d, 0x3c, 0x36, 0x3f,
  0xe1, 0xa2, 0x78, 0xbe, 0x9d, 0x83, 0x1f, 0xbf, 0x00, 0x23, 0x03, 0x3e,
  0x52, 0x1d, 0xb4, 0x3e, 0x21, 0x4d, 0x28, 0xbf, 0x9f, 0x3c, 0x45, 0x3f,
  0xdd, 0x0d, 0xff, 0x3e, 0x2c, 0xea, 0x97, 0x3f, 0x0e, 0x4a, 0x67, 0xbf,
  0x5f, 0x18, 0x1c, 0x3e, 0x7f, 0x2f, 0xa3, 0xbf, 0x46, 0xb7, 0xbb, 0x3e,
  0x9a, 0xdd, 0x00, 0xc0, 0x3d, 0x6b, 0x87, 0xbf, 0x73, 0x7c, 0xb6, 0x3e,
  0x5b, 0x38, 0x7e, 0xbe, 0x87, 0x48, 0x01, 0xbe, 0xd4, 0xf8, 0xa2, 0xbd,
  0xd1, 0xe8, 0xbe, 0xbe, 0xa8, 0xb8, 0x97, 0x3e, 0x25, 0xee, 0x8e, 0xbe,
  0x68, 0xe7, 0x11, 0xbe, 0x0c, 0xbb, 0x39, 0x3e, 0x67, 0xed, 0x31, 0xbd,
  0x48, 0x0e, 0xe2, 0xbe, 0xc7, 0x97, 0xae, 0x3e, 0x0b, 0xa2, 0x8f, 0xbc,
  0x02, 0x05, 0x8b, 0xbe, 0x56, 0x27, 0x1d, 0xc0, 0x03, 0x47, 0x4e, 0x3f,
  0xe7, 0xfd, 0xae, 0x3e, 0x5e, 0x0b, 0x1c, 0xbe, 0xf1, 0x0b, 0x58, 0x3f,
  0x83, 0x47, 0xa0, 0x3f, 0xbd, 0xc0, 0xc7, 0x3f, 0x2c, 0x3d, 0x9b, 0x3e,
  0x24, 0xa7, 0x78, 0x3f, 0x4a, 0x0a, 0x7a, 0xbf, 0x9a, 0xec, 0xab, 0xbe,
  0xa1, 0xd8, 0x9d, 0x3d, 0xe2, 0xfa, 0xff, 0xff, 0x04, 0x00, 0x00, 0x00,
  0x20, 0x01, 0x00, 0x00, 0xd2, 0x1a, 0x35, 0x3d, 0xd7, 0xbc, 0x3f, 0x3f,
  0x97, 0x55, 0x66, 0xbf, 0xb4, 0xb8, 0x60, 0xbf, 0x3c, 0xa4, 0x86, 0x3f,
  0x32, 0x2e, 0x02, 0xc0, 0xf1, 0xf3, 0xa2, 0xbe, 0x72, 0x84, 0x54, 0xbf,
  0x86, 0x74, 0x5b, 0x3f, 0x68, 0x15, 0xaf, 0xbe, 0xd3, 0x4b, 0x3d, 0xbd,
  0x81, 0x9e, 0xb0, 0xbe, 0xb3, 0xd8, 0x04, 0x3f, 0xa0, 0x2d, 0x6a, 0x3f,
  0xcc, 0x66, 0x63, 0xbd, 0xd2, 0xa5, 0xa6, 0x3e, 0x5e, 0x82, 0x62, 0x3f,
  0x13, 0x12, 0xe2, 0xbe, 0x23, 0x6f, 0xf4, 0x3e, 0xd7, 0x78, 0x98, 0xbe,
  0x94, 0xd6, 0xb6, 0x3e, 0x48, 0x33, 0x77, 0xbf, 0x1d, 0x4e, 0x46, 0xbf,
  0xe0, 0x85, 0x96, 0xbd, 0x74, 0x1a, 0x99, 0x3e, 0xb8, 0x96, 0xd8, 0xbe,
  0x05, 0x18, 0x6a, 0x3e, 0x54, 0x37, 0x1c, 0xbf, 0x60, 0xc5, 0x9a, 0x3e,
  0x8b, 0x3b, 0xb4, 0xbf, 0xea, 0x7c, 0xf0, 0xbe, 0xa4, 0x3a, 0x0b, 0x3f,
  0x5a, 0x50, 0x56, 0x3f, 0x68, 0x48, 0xf7, 0xbe, 0x31, 0x20, 0x49, 0xbf,
  0x2e, 0x6a, 0x5b, 0xbe, 0xf4, 0x7c, 0x88, 0xbe, 0xac, 0xcb, 0xfe, 0xbe,
  0x8f, 0x0c, 0x87, 0x3f, 0xe2, 0x34, 0x51, 0xbf, 0xb9, 0xe0, 0x76, 0x3f,
  0x53, 0xa4, 0x04, 0x3f, 0xc2, 0x0e, 0xf8, 0x3d, 0x15, 0x92, 0xed, 0xbe,
  0xeb, 0x64, 0x68, 0x3f, 0xac, 0x7e, 0xea, 0x3e, 0x09, 0xb5, 0x48, 0xbf,
  0x19, 0x7c, 0xca, 0x3c, 0x3c, 0x92, 0x93, 0xbf, 0xea, 0xf4, 0x59, 0xbf,
  0x3b, 0x0f, 0x97, 0x3e, 0xad, 0x59, 0x21, 0xbd, 0xa7, 0xbd, 0x9e, 0x3e,
  0xfd, 0x38, 0x8d, 0x3f, 0x7a, 0x90, 0x64, 0xbd, 0x6e, 0xb9, 0x27, 0xbf,
  0x63, 0x4f, 0x67, 0xbf, 0x7d, 0x56, 0x2c, 0x3f, 0xba, 0xfb, 0x0b, 0x3e,
  0xad, 0x58, 0x0c, 0xbe, 0x75, 0xd2, 0xd9, 0x3e, 0xa3, 0x64, 0xe0, 0x3e,
  0x2e, 0xa9, 0x0b, 0xbf, 0x9e, 0x92, 0x10, 0x3f, 0xfa, 0xb0, 0xbd, 0x3e,
  0x95, 0xdf, 0xa1, 0x3f, 0x80, 0x32, 0xfa, 0xbe, 0x82, 0x2a, 0x53, 0xbe,
  0xa7, 0xb4, 0xc7, 0x3c, 0x4a, 0x7c, 0xc5, 0xbe, 0x34, 0x25, 0x01, 0xbf,
  0x04, 0xe8, 0x8d, 0xbe, 0x0e, 0xfc, 0xff, 0xff, 0x04, 0x00, 0x00, 0x00,
  0x48, 0x00, 0x00, 0x00, 0x50, 0x27, 0x24, 0x3f, 0xa8, 0x17, 0x1a, 0xbf,
  0x8c, 0xbc, 0xaf, 0xbf, 0xbc, 0x50, 0x84, 0xbf, 0xde, 0xf7, 0x3d, 0x3f,
  0x79, 0x4d, 0x2a, 0x3f, 0x76, 0x32, 0x1e, 0xbe, 0xb1, 0x04, 0x57, 0x3f,
  0x34, 0x7e, 0x67, 0xbf, 0xb3, 0x42, 0x22, 0xbf, 0x3c, 0x11, 0x44, 0xbe,
  0xf8, 0xe2, 0x6b, 0xbf, 0x30, 0xc4, 0x38, 0x3f, 0xa7, 0x11, 0x50, 0xbe,
  0x58, 0xd3, 0xdb, 0x3e, 0xb5, 0x28, 0xb0, 0xbf, 0xba, 0xad, 0x00, 0xbf,
  0x5d, 0xb2, 0xff, 0x3e, 0x62, 0xfc, 0xff, 0xff, 0x04, 0x00, 0x00, 0x00,
  0x14, 0x00, 0x00, 0x00, 0x7e, 0x01, 0x98, 0x3f, 0xc8, 0xff, 0xb7, 0x3e,
  0xc2, 0x91, 0xa6, 0xbf, 0xc5, 0x8a, 0x9c, 0x3f, 0xab, 0xb0, 0x12, 0xc0,
  0x82, 0xfc, 0xff, 0xff, 0x04, 0x00, 0x00, 0x00, 0x30, 0x00, 0x00, 0x00,
  0x77, 0x42, 0x8a, 0xbe, 0x3b, 0xc3, 0xc6, 0xbe, 0x7d, 0xf4, 0xa7, 0xbe,
  0x68, 0x36, 0xa8, 0x3d, 0x41, 0x44, 0x20, 0x3f, 0xfa, 0x86, 0xa3, 0xbd,
  0x3b, 0x11, 0x02, 0x3e, 0x58, 0x12, 0x82, 0xbd, 0x66, 0x72, 0x58, 0xbe,
  0x9d, 0x79, 0x63, 0xbd, 0x81, 0x1b, 0x37, 0xbf, 0x4a, 0x71, 0xb7, 0xbe,
  0xbe, 0xfc, 0xff, 0xff, 0x04, 0x00, 0x00, 0x00, 0x60, 0x00, 0x00, 0x00,
  0xff, 0x22, 0x1c, 0xbf, 0xde, 0xd8, 0xd4, 0xbb, 0x91, 0xff, 0x9a, 0xbd,
  0x50, 0xab, 0xf1, 0xbd, 0xd1, 0x64, 0xa7, 0xbe, 0xeb, 0xa8, 0xd2, 0x3e,
  0x16, 0xb3, 0x8f, 0x3d, 0x97, 0x27, 0x19, 0xbd, 0xee, 0xe4, 0x30, 0x3f,
  0x7b, 0x6b, 0xe1, 0xbe, 0x86, 0x74, 0x8a, 0x3e, 0xce, 0xc6, 0x40, 0xbc,
  0x01, 0x78, 0x8f, 0xbd, 0xe9, 0xcd, 0x3a, 0xbf, 0x85, 0xa1, 0x8c, 0xbe,
  0xf8, 0x87, 0x8a, 0xbe, 0x9f, 0xc9, 0x8b, 0xbe, 0x11, 0xc9, 0x8e, 0x3e,
  0x99, 0x0d, 0xb2, 0x3d, 0x1b, 0x41, 0x72, 0x3e, 0x81, 0x01, 0x4e, 0xbf,
  0x3a, 0xfb, 0x04, 0xbe, 0xd8, 0x0a, 0x3a, 0xb9, 0x94, 0xe1, 0x74, 0xbd,
  0x2a, 0xfd, 0xff, 0xff, 0x04, 0x00, 0x00, 0x00, 0xc0, 0x00, 0x00, 0x00,
  0x1d, 0x0c, 0xcf, 0x3c, 0x2b, 0x49, 0x0c, 0xbe, 0xd4, 0x35, 0x76, 0xbe,
  0x23, 0xe2, 0x23, 0x3e, 0x22, 0x09, 0xd2, 0xbd, 0x7f, 0x71, 0xe7, 0x3d,
  0xe4, 0x83, 0x37, 0xbd, 0x5a, 0x37, 0x92, 0xbe, 0xd2, 0xf2, 0xf3, 0x3e,
  0x30, 0xfd, 0x83, 0xbd, 0xdd, 0x59, 0x88, 0x3e, 0x8f, 0x4a, 0x9d, 0xbe,
  0x25, 0xe0, 0xd7, 0xbe, 0x4c, 0xc6, 0x76, 0x3d, 0xb2, 0x5f, 0x58, 0xbe,
  0x7b, 0x17, 0xb0, 0x3d, 0x7a, 0xe7, 0x35, 0xbe, 0x8f, 0x2e, 0x2c, 0xbe,
  0x28, 0x3c, 0x32, 0x3e, 0x9c, 0x3c, 0x5a, 0x3e, 0x1a, 0x45, 0x2e, 0x3d,
  0x71, 0x82, 0x32, 0x3e, 0x7b, 0xb7, 0xab, 0x3e, 0x34, 0xa8, 0x3f, 0x3d,
  0x87, 0x8e, 0xfe, 0xbe, 0xa1, 0x9e, 0x5e, 0xbe, 0xc2, 0x22, 0x87, 0xbd,
  0x7a, 0x99, 0x9c, 0x3d, 0xcc, 0x39, 0x09, 0xbf, 0xb8, 0x7d, 0x2f, 0x3e,
  0xbb, 0x55, 0x93, 0x3e, 0xb6, 0x30, 0x95, 0x3e, 0xc8, 0xf3, 0xf9, 0xbd,
  0x2d, 0x62, 0x3c, 0x3e, 0x67, 0xf6, 0xa9, 0x3c, 0xdf, 0x96, 0xb9, 0x3e,
  0x3b, 0xf8, 0x98, 0xbe, 0x88, 0x9a, 0x93, 0xbd, 0xb5, 0x2d, 0x6e, 0xbe,
  0x5c, 0x07, 0xab, 0xbd, 0xf9, 0x33, 0x0c, 0xbe, 0xb2, 0x59, 0x48, 0x3d,
  0x6f, 0x6f, 0x64, 0xbe, 0x21, 0x68, 0x81, 0xbf, 0x6f, 0xcc, 0x29, 0xbf,
  0x91, 0x84, 0x79, 0xbd, 0x67, 0x43, 0xcc, 0xbe, 0x86, 0x0c, 0x2b, 0xbc,
  0xf6, 0xfd, 0xff, 0xff, 0x04, 0x00, 0x00, 0x00, 0x60, 0x00, 0x00, 0x00,
  0x2e, 0x0c, 0xd9, 0xbd, 0x20, 0x77, 0xdb, 0xbd, 0x63, 0x7a, 0xa3, 0xbd,
  0x96, 0xbb, 0xba, 0x3e, 0x3d, 0xcc, 0x9f, 0xbd, 0x1b, 0x75, 0x65, 0xbe,
  0x99, 0xf4, 0xe6, 0x3e, 0xf8, 0x3d, 0xb6, 0xbd, 0x7b, 0x6e, 0x9c, 0x3d,
  0x7e, 0x72, 0x49, 0x3e, 0xf0, 0xd5, 0x72, 0x3e, 0x97, 0x3f, 0x4e, 0x3e,
  0x54, 0xec, 0x24, 0xbf, 0x38, 0xde, 0x64, 0x3e, 0xda, 0x2b, 0xa2, 0xbd,
  0xaa, 0xf1, 0x07, 0xbf, 0x8f, 0x42, 0x20, 0x3e, 0xfd, 0xec, 0xa5, 0xbd,
  0x1f, 0x58, 0xad, 0x3d, 0xfd, 0x4e, 0x0e, 0x3e, 0x1a, 0xd9, 0x39, 0x3e,
  0x6c, 0x4c, 0x8b, 0xbd, 0x49, 0x36, 0x1a, 0x3e, 0x7a, 0xd4, 0x1b, 0xbd,
  0x62, 0xfe, 0xff, 0xff, 0x04, 0x00, 0x00, 0x00, 0x60, 0x00, 0x00, 0x00,
  0xb7, 0x1e, 0x83, 0xbe, 0x0e, 0xf3, 0x94, 0xbc, 0x24, 0xd3, 0x7e, 0x3c,
  0x0c, 0x7d, 0xc4, 0xbd, 0xa4, 0xb1, 0x72, 0xbe, 0xaa, 0xdf, 0xa4, 0x3e,
  0x4a, 0x65, 0x24, 0x3d, 0x20, 0x96, 0x0d, 0xbd, 0x43, 0xbe, 0x41, 0xbd,
  0xe5, 0x44, 0xfc, 0x3d, 0x76, 0x22, 0xa3, 0xbe, 0xd3, 0x76, 0x99, 0x3c,
  0xf2, 0x07, 0x97, 0x3d, 0x47, 0xa5, 0x53, 0x3d, 0xb6, 0x87, 0x16, 0x3e,
  0x5b, 0x37, 0xd6, 0x3d, 0xd6, 0x21, 0x1c, 0x3e, 0x0e, 0x07, 0x53, 0x3e,
  0x22, 0xfd, 0x2a, 0x3e, 0x74, 0xc3, 0x80, 0x3c, 0x31, 0x10, 0x53, 0xbe,
  0xb4, 0xe1, 0xdb, 0x3e, 0xfd, 0x69, 0x93, 0xbd, 0x50, 0x97, 0x93, 0xbc,
  0xce, 0xfe, 0xff, 0xff, 0x04, 0x00, 0x00, 0x00, 0x30, 0x00, 0x00, 0x00,
  0x9b, 0xc8, 0x08, 0x3e, 0x86, 0xa5, 0x34, 0x3e, 0xb9, 0xe9, 0x67, 0xbe,
  0xf8, 0xe2, 0x02, 0x3e, 0x91, 0xb0, 0x93, 0x3e, 0x4a, 0x81, 0x51, 0xbe,
  0x49, 0x0c, 0x16, 0xbd, 0x7d, 0x6a, 0x63, 0xbe, 0x5f, 0x3d, 0x22, 0x3e,
  0xf3, 0xd0, 0xc4, 0x3e, 0xf9, 0x40, 0x3d, 0xbe, 0x08, 0x1b, 0x02, 0xbd,
  0x0a, 0xff, 0xff, 0xff, 0x04, 0x00, 0x00, 0x00, 0x18, 0x00, 0x00, 0x00,
  0xab, 0xf6, 0x50, 0x3e, 0xd4, 0x64, 0x8b, 0xbe, 0x7a, 0x40, 0x69, 0x3e,
  0xa6, 0xea, 0x05, 0xbe, 0x9a, 0xba, 0x9c, 0xbe, 0xeb, 0x48, 0xb8, 0x3e,
  0x2e, 0xff, 0xff, 0xff, 0x04, 0x00, 0x00, 0x00, 0x0c, 0x00, 0x00, 0x00,
  0x03, 0x71, 0x54, 0xc0, 0x17, 0x28, 0x7d, 0xc1, 0xa3, 0xfb, 0xba, 0xc1,
  0x46, 0xff, 0xff, 0xff, 0x04, 0x00, 0x00, 0x00, 0x0c, 0x00, 0x00, 0x00,
  0x9c, 0x98, 0x89, 0x3d, 0xfb, 0xaf, 0x0b, 0x3d, 0x96, 0xe3, 0xda, 0x3c,
  0x94, 0xf0, 0xff, 0xff, 0x98, 0xf0, 0xff, 0xff, 0x0f, 0x00, 0x00, 0x00,
  0x4d, 0x4c, 0x49, 0x52, 0x20, 0x43, 0x6f, 0x6e, 0x76, 0x65, 0x72, 0x74,
  0x65, 0x64, 0x2e, 0x00, 0x01, 0x00, 0x00, 0x00, 0x14, 0x00, 0x00, 0x00,
  0x00, 0x00, 0x0e, 0x00, 0x18, 0x00, 0x14, 0x00, 0x10, 0x00, 0x0c, 0x00,
  0x08, 0x00, 0x04, 0x00, 0x0e, 0x00, 0x00, 0x00, 0x14, 0x00, 0x00, 0x00,
  0x1c, 0x00, 0x00, 0x00, 0xc0, 0x02, 0x00, 0x00, 0xc4, 0x02, 0x00, 0x00,
  0xc8, 0x02, 0x00, 0x00, 0x04, 0x00, 0x00, 0x00, 0x6d, 0x61, 0x69, 0x6e,
  0x00, 0x00, 0x00, 0x00, 0x0b, 0x00, 0x00, 0x00, 0x78, 0x02, 0x00, 0x00,
  0x34, 0x02, 0x00, 0x00, 0xe0, 0x01, 0x00, 0x00, 0xa4, 0x01, 0x00, 0x00,
